[PAD]	0
[UNK]	0
[BOS]	0
[EOS]	0
▁t	-0
▁s	-1
▁a	-2
er	-3
on	-4
▁d	-5
▁c	-6
re	-7
he	-8
in	-9
om	-10
▁p	-11
▁T	-12
at	-13
▁l	-14
an	-15
▁m	-16
ou	-17
▁I	-18
▁2	-19
▁h	-20
en	-21
is	-22
▁3	-23
▁1	-24
▁Tom	-25
▁w	-26
or	-27
▁f	-28
ar	-29
▁n	-30
es	-31
to	-32
ll	-33
▁b	-34
▁to	-35
▁y	-36
▁di	-37
te	-38
▁you	-39
▁6	-40
ve	-41
ia	-42
▁u	-43
▁5	-44
▁i	-45
as	-46
os	-47
▁v	-48
▁the	-49
▁g	-50
▁S	-51
▁in	-52
ta	-53
▁4	-54
ol	-55
▁7	-56
ed	-57
ing	-58
▁H	-59
ti	-60
ri	-61
▁th	-62
▁ha	-63
▁un	-64
ere	-65
▁8	-66
et	-67
ra	-68
90	-69
ro	-70
91	-71
▁L	-72
▁an	-73
▁M	-74
▁che	-75
ic	-76
ato	-77
le	-78
qu	-79
▁è	-80
▁N	-81
▁o	-82
▁is	-83
54	-84
▁W	-85
01	-86
73	-87
02	-88
72	-89
82	-90
53	-91
92	-92
li	-93
▁qu	-94
are	-95
▁la	-96
▁D	-97
51	-98
52	-99
71	-100
74	-101
96	-102
94	-103
ch	-104
86	-105
▁11	-106
▁non	-107
76	-108
ot	-109
▁e	-110
56	-111
93	-112
▁do	-113
03	-114
81	-115
▁su	-116
83	-117
it	-118
no	-119
84	-120
06	-121
ono	-122
▁me	-123
am	-124
04	-125
ell	-126
al	-127
▁st	-128
do	-129
▁Non	-130
▁per	-131
▁A	-132
▁P	-133
▁con	-134
▁C	-135
▁He	-136
us	-137
▁il	-138
id	-139
el	-140
ei	-141
one	-142
ess	-143
▁be	-144
im	-145
ut	-146
▁li	-147
▁Y	-148
ay	-149
io	-150
ver	-151
mo	-152
▁You	-153
ce	-154
▁re	-155
ary	-156
▁Io	-157
▁of	-158
▁he	-159
64	-160
95	-161
▁The	-162
00	-163
98	-164
▁that	-165
24	-166
11	-167
75	-168
▁Mary	-169
▁was	-170
▁Wh	-171
ke	-172
▁se	-173
ld	-174
▁and	-175
ate	-176
cc	-177
▁com	-178
23	-179
78	-180
ad	-181
63	-182
pp	-183
70	-184
ent	-185
▁le	-186
21	-187
▁for	-188
44	-189
▁ver	-190
ente	-191
▁ne	-192
▁ri	-193
88	-194
se	-195
▁She	-196
bb	-197
66	-198
oi	-199
55	-200
ost	-201
all	-202
gli	-203
▁al	-204
ter	-205
▁sa	-206
▁go	-207
ci	-208
un	-209
▁una	-210
▁sono	-211
▁lo	-212
ant	-213
43	-214
▁k	-215
77	-216
61	-217
ow	-218
gh	-219
▁Do	-220
▁ch	-221
▁her	-222
mp	-223
va	-224
▁it	-225
▁have	-226
99	-227
58	-228
▁can	-229
22	-230
so	-231
vo	-232
ai	-233
ata	-234
▁V	-235
▁sp	-236
iamo	-237
▁as	-238
▁mi	-239
ui	-240
▁pi	-241
33	-242
gg	-243
▁did	-244
arl	-245
50	-246
▁pre	-247
zi	-248
ith	-249
▁We	-250
ando	-251
▁È	-252
▁are	-253
97	-254
▁him	-255
▁Q	-256
▁Qu	-257
▁si	-258
26	-259
41	-260
▁with	-261
▁31	-262
▁all	-263
▁er	-264
ok	-265
08	-266
▁not	-267
ome	-268
▁sc	-269
etto	-270
ano	-271
▁B	-272
▁want	-273
▁da	-274
▁391	-275
▁Th	-276
ould	-277
▁your	-278
▁don	-279
si	-280
ir	-281
▁Ha	-282
▁ques	-283
31	-284
▁pro	-285
▁sta	-286
ati	-287
ght	-288
▁on	-289
▁They	-290
▁mol	-291
▁at	-292
▁de	-293
▁cos	-294
▁te	-295
ac	-296
gn	-297
57	-298
▁wh	-299
▁ho	-300
ran	-301
out	-302
▁10	-303
▁so	-304
34	-305
▁my	-306
80	-307
▁them	-308
oro	-309
now	-310
end	-311
▁like	-312
▁22	-313
▁Per	-314
▁Mi	-315
▁know	-316
▁pia	-317
ole	-318
▁this	-319
ill	-320
▁E	-321
ora	-322
▁r	-323
62	-324
ted	-325
▁F	-326
od	-327
▁73	-328
▁am	-329
▁his	-330
ff	-331
ur	-332
▁sh	-333
▁390	-334
ly	-335
ust	-336
ink	-337
▁man	-338
▁G	-339
▁La	-340
85	-341
79	-342
di	-343
▁ab	-344
▁24	-345
za	-346
uto	-347
▁gi	-348
th	-349
▁comp	-350
▁detto	-351
ché	-352
mb	-353
▁molto	-354
▁74	-355
▁33	-356
▁us	-357
anno	-358
05	-359
▁dis	-360
▁sol	-361
mi	-362
enti	-363
ella	-364
vi	-365
87	-366
glio	-367
co	-368
res	-369
▁wor	-370
42	-371
ry	-372
▁Sono	-373
▁era	-374
▁ad	-375
13	-376
▁stu	-377
and	-378
▁23	-379
89	-380
ap	-381
ma	-382
▁What	-383
▁It	-384
bi	-385
▁par	-386
ese	-387
▁Il	-388
▁ar	-389
07	-390
nd	-391
▁Lei	-392
▁9	-393
▁fa	-394
14	-395
▁didn	-396
▁think	-397
▁vero	-398
▁said	-399
▁she	-400
▁imp	-401
ul	-402
▁fin	-403
▁Perché	-404
▁Why	-405
▁chi	-406
59	-407
esso	-408
▁j	-409
▁ra	-410
▁suo	-411
▁we	-412
▁Ho	-413
▁44	-414
16	-415
▁fr	-416
▁tut	-417
09	-418
▁ess	-419
ag	-420
▁vi	-421
▁più	-422
uo	-423
32	-424
ble	-425
sa	-426
▁come	-427
▁very	-428
la	-429
▁pen	-430
▁del	-431
ca	-432
ami	-433
▁po	-434
▁fi	-435
ero	-436
▁here	-437
▁any	-438
▁fat	-439
ice	-440
▁has	-441
eri	-442
68	-443
▁essere	-444
osa	-445
▁isn	-446
ard	-447
▁84	-448
est	-449
67	-450
▁cas	-451
ved	-452
▁lei	-453
ak	-454
▁sua	-455
▁tro	-456
▁pr	-457
tare	-458
ina	-459
▁ai	-460
oston	-461
▁Boston	-462
▁will	-463
▁parl	-464
▁pos	-465
▁see	-466
20	-467
gi	-468
▁mo	-469
▁254	-470
ori	-471
▁about	-472
▁ci	-473
alc	-474
▁questo	-475
bbe	-476
pe	-477
lp	-478
36	-479
▁anc	-480
▁mai	-481
28	-482
ello	-483
ren	-484
▁av	-485
vete	-486
▁Lui	-487
▁help	-488
▁qui	-489
▁loro	-490
her	-491
mente	-492
lia	-493
▁they	-494
ame	-495
ort	-496
ten	-497
▁26	-498
▁ever	-499
▁car	-500
zione	-501
zz	-502
▁bo	-503
ggi	-504
25	-505
de	-506
▁34	-507
▁21	-508
▁pl	-509
ga	-510
▁told	-511
▁vis	-512
▁fare	-513
▁Le	-514
▁ti	-515
▁28	-516
▁102	-517
▁were	-518
▁101	-519
▁R	-520
▁Ques	-521
▁ma	-522
day	-523
orn	-524
ete	-525
▁piace	-526
46	-527
▁90	-528
▁no	-529
▁lav	-530
▁Si	-531
alk	-532
27	-533
endo	-534
ally	-535
▁ancora	-536
▁ex	-537
lo	-538
▁tr	-539
▁casa	-540
▁O	-541
▁mio	-542
ase	-543
▁vo	-544
ct	-545
▁need	-546
ous	-547
▁bu	-548
▁does	-549
st	-550
red	-551
ang	-552
ass	-553
ast	-554
ays	-555
60	-556
▁lui	-557
ong	-558
era	-559
▁what	-560
▁going	-561
iare	-562
38	-563
ante	-564
▁This	-565
▁stud	-566
▁Don	-567
12	-568
35	-569
▁co	-570
▁Ch	-571
▁qualc	-572
der	-573
▁now	-574
30	-575
ura	-576
anto	-577
65	-578
▁lib	-579
▁25	-580
▁224	-581
▁264	-582
ven	-583
▁look	-584
ue	-585
▁pa	-586
▁gu	-587
▁Are	-588
▁Sami	-589
hing	-590
ica	-591
bbiamo	-592
▁should	-593
ici	-594
▁or	-595
▁62	-596
▁andare	-597
ine	-598
ene	-599
▁tim	-600
amente	-601
▁dov	-602
▁get	-603
riend	-604
▁32	-605
ino	-606
▁mia	-607
▁work	-608
lla	-609
▁così	-610
▁ta	-611
thing	-612
▁pu	-613
▁29	-614
iso	-615
ola	-616
▁J	-617
▁27	-618
69	-619
▁happ	-620
▁sti	-621
▁"	-622
15	-623
▁fatto	-624
▁Noi	-625
ck	-626
▁cosa	-627
▁from	-628
ne	-629
48	-630
up	-631
▁app	-632
arlo	-633
chi	-634
37	-635
▁18	-636
▁sto	-637
▁had	-638
▁How	-639
▁Tu	-640
39	-641
um	-642
▁Lo	-643
ni	-644
▁Pen	-645
▁dell	-646
ba	-647
ento	-648
10	-649
etter	-650
▁fo	-651
▁talk	-652
go	-653
40	-654
▁fe	-655
▁alla	-656
ave	-657
oni	-658
ist	-659
per	-660
▁pri	-661
ua	-662
▁chia	-663
olo	-664
18	-665
45	-666
▁sia	-667
47	-668
▁won	-669
▁never	-670
17	-671
▁one	-672
▁still	-673
gno	-674
ty	-675
▁up	-676
▁spe	-677
mbra	-678
▁Se	-679
▁time	-680
29	-681
▁read	-682
▁home	-683
▁every	-684
rei	-685
▁ca	-686
▁really	-687
▁Can	-688
ack	-689
▁some	-690
19	-691
▁tra	-692
▁inter	-693
▁ro	-694
▁53	-695
▁That	-696
▁della	-697
rebbe	-698
▁Voi	-699
cere	-700
▁tell	-701
▁good	-702
ried	-703
hen	-704
ree	-705
▁852	-706
▁mad	-707
▁there	-708
▁eat	-709
▁cont	-710
49	-711
ish	-712
ett	-713
our	-714
ought	-715
tion	-716
▁out	-717
▁by	-718
▁Did	-719
▁doesn	-720
▁dei	-721
ation	-722
▁bus	-723
lease	-724
ach	-725
▁been	-726
▁vost	-727
▁friend	-728
▁pers	-729
ep	-730
▁52	-731
ani	-732
▁ni	-733
fe	-734
ppo	-735
▁cap	-736
▁got	-737
uno	-738
▁ven	-739
zza	-740
▁42	-741
con	-742
▁stato	-743
▁vol	-744
▁too	-745
▁63	-746
bile	-747
▁ris	-748
▁sic	-749
ose	-750
▁My	-751
▁sei	-752
▁vu	-753
▁57	-754
▁proble	-755
▁51	-756
▁pres	-757
▁call	-758
▁dom	-759
▁mu	-760
che	-761
▁would	-762
▁gio	-763
▁book	-764
ona	-765
ccup	-766
▁45	-767
ge	-768
ves	-769
row	-770
▁fel	-771
▁30	-772
sel	-773
▁questa	-774
▁just	-775
▁61	-776
▁aiut	-777
▁nuo	-778
▁ved	-779
▁Have	-780
att	-781
ico	-782
▁16	-783
man	-784
▁semp	-785
▁vole	-786
▁cam	-787
▁bi	-788
▁gli	-789
▁lot	-790
▁acc	-791
▁parlare	-792
▁38	-793
▁66	-794
iss	-795
ranc	-796
oss	-797
erà	-798
ha	-799
▁Where	-800
▁Questo	-801
▁373	-802
▁50	-803
op	-804
▁ask	-805
▁than	-806
ers	-807
▁quello	-808
itt	-809
▁voglio	-810
▁trov	-811
▁Is	-812
▁solo	-813
▁play	-814
▁temp	-815
▁ave	-816
▁tre	-817
ound	-818
ind	-819
▁stan	-820
▁tutto	-821
ini	-822
▁71	-823
gni	-824
▁avete	-825
▁fu	-826
▁much	-827
▁senti	-828
▁off	-829
▁hai	-830
▁201	-831
me	-832
▁res	-833
▁nu	-834
▁dec	-835
ide	-836
▁went	-837
▁love	-838
▁conos	-839
▁pe	-840
ari	-841
▁35	-842
enza	-843
▁anything	-844
▁diff	-845
▁troppo	-846
▁Sta	-847
▁biso	-848
▁hanno	-849
ob	-850
▁Ci	-851
▁abb	-852
▁qualcosa	-853
▁tutti	-854
▁ve	-855
omet	-856
▁delle	-857
oney	-858
▁speak	-859
old	-860
▁bisogno	-861
po	-862
rench	-863
▁arri	-864
▁ora	-865
▁Che	-866
▁French	-867
▁nel	-868
▁asp	-869
oso	-870
▁sempre	-871
▁bene	-872
▁franc	-873
▁282	-874
▁far	-875
ggio	-876
▁382	-877
▁cl	-878
nt	-879
▁en	-880
glia	-881
▁43	-882
self	-883
▁es	-884
▁say	-885
gl	-886
▁francese	-887
wn	-888
▁106	-889
▁In	-890
▁36	-891
▁but	-892
▁223	-893
▁back	-894
ho	-895
▁vuole	-896
▁83	-897
▁las	-898
ure	-899
▁14	-900
etti	-901
▁De	-902
par	-903
▁new	-904
▁dav	-905
ista	-906
omething	-907
anted	-908
vero	-909
▁There	-910
▁41	-911
▁653	-912
▁money	-913
orta	-914
▁piacere	-915
orno	-916
uc	-917
▁cer	-918
▁Chi	-919
▁wanted	-920
tic	-921
▁sch	-922
ito	-923
▁voi	-924
▁chiam	-925
ways	-926
▁busy	-927
ars	-928
uro	-929
erò	-930
omo	-931
▁nella	-932
▁always	-933
▁68	-934
other	-935
▁dr	-936
▁Vi	-937
▁ries	-938
▁farlo	-939
ane	-940
▁af	-941
▁59	-942
▁lun	-943
▁lavoro	-944
ustra	-945
▁20	-946
▁wat	-947
ise	-948
▁something	-949
na	-950
▁visto	-951
▁sor	-952
ated	-953
▁posso	-954
arn	-955
▁could	-956
▁60	-957
▁davvero	-958
▁more	-959
▁teach	-960
▁sar	-961
▁tempo	-962
ft	-963
▁siete	-964
▁sembra	-965
▁libro	-966
▁12	-967
ustralia	-968
▁56	-969
▁cor	-970
rit	-971
▁wasn	-972
▁Vo	-973
segn	-974
arla	-975
▁dall	-976
▁94	-977
▁Come	-978
▁Sei	-979
▁Gli	-980
rato	-981
▁op	-982
▁Dov	-983
▁today	-984
▁qua	-985
bo	-986
ena	-987
▁happy	-988
ody	-989
▁only	-990
▁wa	-991
▁must	-992
▁oggi	-993
▁37	-994
▁ser	-995
▁77	-996
orrow	-997
uti	-998
▁100	-999
▁67	-1000
ful	-1001
▁pot	-1002
▁siamo	-1003
▁può	-1004
gry	-1005
mm	-1006
vano	-1007
▁Please	-1008
▁65	-1009
▁erano	-1010
pi	-1011
▁19	-1012
▁diver	-1013
▁mang	-1014
ool	-1015
▁Loro	-1016
▁49	-1017
▁91	-1018
col	-1019
▁their	-1020
▁92	-1021
▁find	-1022
▁lik	-1023
▁St	-1024
▁dire	-1025
▁comput	-1026
uta	-1027
▁88	-1028
▁inf	-1029
▁sm	-1030
▁64	-1031
▁Penso	-1032
▁271	-1033
▁dog	-1034
▁Dove	-1035
vore	-1036
▁86	-1037
▁favore	-1038
ord	-1039
ire	-1040
▁mar	-1041
▁last	-1042
etta	-1043
ore	-1044
▁noi	-1045
▁tuo	-1046
▁Let	-1047
▁buy	-1048
read	-1049
▁live	-1050
▁gran	-1051
▁ass	-1052
▁school	-1053
▁under	-1054
▁Ti	-1055
▁suoi	-1056
anti	-1057
▁Cosa	-1058
▁computer	-1059
ving	-1060
▁succ	-1061
zzo	-1062
▁744	-1063
▁right	-1064
▁15	-1065
▁pass	-1066
▁stata	-1067
▁Hanno	-1068
▁adesso	-1069
▁Australia	-1070
▁54	-1071
▁day	-1072
asi	-1073
▁mor	-1074
▁Era	-1075
▁star	-1076
esta	-1077
▁sal	-1078
▁Who	-1079
▁raga	-1080
tro	-1081
tra	-1082
▁ye	-1083
▁seem	-1084
▁ke	-1085
▁nost	-1086
▁Voglio	-1087
oli	-1088
use	-1089
▁272	-1090
▁col	-1091
▁quando	-1092
▁take	-1093
cci	-1094
ie	-1095
▁give	-1096
▁644	-1097
▁made	-1098
▁prima	-1099
ouse	-1100
ther	-1101
▁feel	-1102
pos	-1103
▁who	-1104
▁286	-1105
▁happen	-1106
▁gen	-1107
▁Questa	-1108
ità	-1109
▁stay	-1110
utto	-1111
▁wait	-1112
▁sure	-1113
rò	-1114
hed	-1115
▁bl	-1116
▁Sto	-1117
▁niente	-1118
▁55	-1119
▁fun	-1120
▁friends	-1121
▁ten	-1122
▁643	-1123
ment	-1124
▁abbiamo	-1125
▁tw	-1126
▁scu	-1127
edi	-1128
▁pic	-1129
▁prend	-1130
▁13	-1131
▁Hai	-1132
essuno	-1133
▁penso	-1134
▁bra	-1135
▁392	-1136
▁make	-1137
▁leave	-1138
vere	-1139
▁due	-1140
▁già	-1141
cia	-1142
▁tom	-1143
ople	-1144
▁bro	-1145
occup	-1146
▁saw	-1147
▁how	-1148
▁256	-1149
▁48	-1150
▁aff	-1151
▁aveva	-1152
▁study	-1153
age	-1154
▁tua	-1155
osso	-1156
▁lavor	-1157
armi	-1158
que	-1159
urn	-1160
▁many	-1161
▁felice	-1162
▁thing	-1163
961	-1164
▁scuola	-1165
▁letter	-1166
ardo	-1167
▁ent	-1168
▁when	-1169
▁571	-1170
▁2203	-1171
▁nulla	-1172
▁117	-1173
▁ide	-1174
ester	-1175
▁bot	-1176
ud	-1177
▁house	-1178
▁Di	-1179
▁mangi	-1180
gain	-1181
▁room	-1182
get	-1183
723	-1184
▁preoccup	-1185
amb	-1186
lle	-1187
▁giorno	-1188
▁if	-1189
rà	-1190
lie	-1191
ont	-1192
▁learn	-1193
▁851	-1194
▁wants	-1195
▁dove	-1196
cato	-1197
▁104	-1198
▁again	-1199
▁82	-1200
▁tomorrow	-1201
▁br	-1202
vent	-1203
ale	-1204
▁gra	-1205
▁thought	-1206
▁tele	-1207
▁mus	-1208
ence	-1209
▁96	-1210
▁221	-1211
▁cat	-1212
▁sw	-1213
ond	-1214
il	-1215
▁Tell	-1216
▁mac	-1217
ze	-1218
otto	-1219
▁insegn	-1220
very	-1221
▁283	-1222
▁impar	-1223
▁1172	-1224
▁well	-1225
▁Siete	-1226
▁70	-1227
leep	-1228
ult	-1229
▁child	-1230
bbi	-1231
▁lasci	-1232
▁disse	-1233
anza	-1234
▁fami	-1235
▁353	-1236
▁801	-1237
▁uno	-1238
▁So	-1239
cch	-1240
▁three	-1241
▁46	-1242
atto	-1243
▁guard	-1244
▁try	-1245
▁min	-1246
."	-1247
▁341	-1248
▁Ne	-1249
▁legg	-1250
841	-1251
▁long	-1252
▁533	-1253
▁58	-1254
▁our	-1255
▁voleva	-1256
▁prov	-1257
▁macch	-1258
761	-1259
zia	-1260
▁people	-1261
esti	-1262
▁drink	-1263
▁ter	-1264
▁pron	-1265
▁311	-1266
▁domani	-1267
▁Every	-1268
▁Avete	-1269
▁soldi	-1270
xt	-1271
▁fac	-1272
esto	-1273
▁arra	-1274
ress	-1275
▁cre	-1276
ich	-1277
essa	-1278
▁des	-1279
▁574	-1280
546	-1281
▁exp	-1282
ek	-1283
▁211	-1284
rong	-1285
erv	-1286
▁sare	-1287
▁cane	-1288
544	-1289
ali	-1290
▁perché	-1291
▁mon	-1292
▁veramente	-1293
912	-1294
▁teacher	-1295
isse	-1296
511	-1297
514	-1298
▁740	-1299
dio	-1300
▁401	-1301
741	-1302
▁466	-1303
▁aren	-1304
more	-1305
▁pref	-1306
▁vostro	-1307
▁112	-1308
▁says	-1309
▁252	-1310
▁sape	-1311
▁sent	-1312
tamente	-1313
▁problem	-1314
731	-1315
llo	-1316
▁ieri	-1317
▁bir	-1318
▁parte	-1319
▁Abbiamo	-1320
▁job	-1321
766	-1322
▁pad	-1323
▁alle	-1324
▁win	-1325
▁conf	-1326
▁better	-1327
▁lost	-1328
▁doing	-1329
mmo	-1330
iri	-1331
713	-1332
▁gir	-1333
944	-1334
943	-1335
▁hand	-1336
▁sing	-1337
▁belie	-1338
▁Lay	-1339
zio	-1340
▁old	-1341
▁left	-1342
▁tu	-1343
▁72	-1344
▁Layla	-1345
▁ero	-1346
cer	-1347
gra	-1348
561	-1349
▁ucc	-1350
033	-1351
▁And	-1352
▁hate	-1353
▁alone	-1354
816	-1355
722	-1356
▁ogni	-1357
▁deve	-1358
▁93	-1359
901	-1360
▁When	-1361
▁met	-1362
▁asked	-1363
531	-1364
733	-1365
024	-1366
aro	-1367
▁cui	-1368
724	-1369
▁ready	-1370
▁macchina	-1371
023	-1372
031	-1373
▁via	-1374
736	-1375
gu	-1376
▁354	-1377
▁621	-1378
▁fos	-1379
▁Sembra	-1380
ity	-1381
orm	-1382
904	-1383
926	-1384
742	-1385
▁week	-1386
ute	-1387
▁padre	-1388
zo	-1389
▁io	-1390
911	-1391
▁gr	-1392
▁ru	-1393
▁aw	-1394
ret	-1395
▁avere	-1396
516	-1397
▁kill	-1398
▁seen	-1399
▁ac	-1400
▁plan	-1401
763	-1402
▁rit	-1403
▁father	-1404
▁Siamo	-1405
orrei	-1406
▁chied	-1407
▁pensa	-1408
pr	-1409
▁118	-1410
534	-1411
body	-1412
▁vita	-1413
▁den	-1414
esterday	-1415
862	-1416
ick	-1417
▁40	-1418
irst	-1419
▁girl	-1420
▁vedere	-1421
563	-1422
▁yet	-1423
726	-1424
▁pens	-1425
stand	-1426
▁idea	-1427
ger	-1428
▁nuovo	-1429
861	-1430
▁sur	-1431
734	-1432
026	-1433
ccia	-1434
▁cou	-1435
721	-1436
740	-1437
958	-1438
▁meet	-1439
▁lì	-1440
▁mangiare	-1441
▁anni	-1442
▁sarà	-1443
▁284	-1444
pri	-1445
▁78	-1446
▁andato	-1447
ready	-1448
utare	-1449
▁already	-1450
▁used	-1451
▁occup	-1452
▁tired	-1453
513	-1454
955	-1455
921	-1456
isi	-1457
ting	-1458
▁hun	-1459
▁two	-1460
▁inc	-1461
▁arrabbi	-1462
963	-1463
541	-1464
cco	-1465
rare	-1466
▁243	-1467
▁115	-1468
▁En	-1469
813	-1470
814	-1471
▁everything	-1472
▁meglio	-1473
564	-1474
823	-1475
egn	-1476
▁volta	-1477
833	-1478
▁sul	-1479
isten	-1480
533	-1481
863	-1482
985	-1483
ised	-1484
903	-1485
erm	-1486
▁spos	-1487
941	-1488
▁114	-1489
768	-1490
▁85	-1491
▁gave	-1492
▁bamb	-1493
gione	-1494
pid	-1495
764	-1496
▁188	-1497
▁where	-1498
743	-1499
952	-1500
mber	-1501
▁down	-1502
▁torn	-1503
▁understand	-1504
resti	-1505
824	-1506
tà	-1507
▁80	-1508
712	-1509
▁night	-1510
▁stava	-1511
902	-1512
▁ins	-1513
866	-1514
ima	-1515
ance	-1516
▁dalla	-1517
732	-1518
931	-1519
▁296	-1520
▁letto	-1521
946	-1522
ittle	-1523
▁done	-1524
860	-1525
942	-1526
ough	-1527
▁Li	-1528
▁bought	-1529
034	-1530
022	-1531
▁presto	-1532
536	-1533
▁little	-1534
eno	-1535
▁comprato	-1536
▁arriv	-1537
512	-1538
762	-1539
036	-1540
064	-1541
ario	-1542
▁424	-1543
zioni	-1544
▁found	-1545
836	-1546
▁Pensa	-1547
▁nothing	-1548
916	-1549
▁Engl	-1550
▁738	-1551
▁prom	-1552
▁yesterday	-1553
▁spa	-1554
767	-1555
▁poss	-1556
lli	-1557
▁363	-1558
▁fid	-1559
711	-1560
▁even	-1561
758	-1562
566	-1563
738	-1564
737	-1565
▁847	-1566
▁scor	-1567
041	-1568
061	-1569
730	-1570
714	-1571
▁dim	-1572
838	-1573
▁bas	-1574
▁47	-1575
▁va	-1576
▁problema	-1577
▁vostra	-1578
▁please	-1579
013	-1580
▁sicuro	-1581
515	-1582
818	-1583
980	-1584
▁import	-1585
▁reg	-1586
▁Sp	-1587
▁miei	-1588
▁parti	-1589
▁studi	-1590
532	-1591
932	-1592
950	-1593
523	-1594
▁use	-1595
▁116	-1596
▁name	-1597
538	-1598
▁care	-1599
757	-1600
arti	-1601
▁sleep	-1602
834	-1603
▁Jo	-1604
elli	-1605
▁riesco	-1606
▁rec	-1607
wer	-1608
erb	-1609
568	-1610
?"	-1611
043	-1612
ote	-1613
046	-1614
▁tried	-1615
966	-1616
▁next	-1617
930	-1618
▁Qual	-1619
▁Disse	-1620
964	-1621
542	-1622
▁vin	-1623
▁quel	-1624
▁chang	-1625
922	-1626
▁stor	-1627
▁impegn	-1628
710	-1629
811	-1630
pt	-1631
▁Your	-1632
562	-1633
▁mal	-1634
▁aspett	-1635
mer	-1636
▁cal	-1637
da	-1638
735	-1639
934	-1640
▁Quando	-1641
ita	-1642
▁aver	-1643
044	-1644
oud	-1645
▁into	-1646
▁An	-1647
▁110	-1648
914	-1649
▁aiutare	-1650
▁took	-1651
923	-1652
867	-1653
care	-1654
▁ans	-1655
▁quella	-1656
821	-1657
933	-1658
945	-1659
ball	-1660
744	-1661
▁grande	-1662
▁cons	-1663
543	-1664
062	-1665
014	-1666
cchi	-1667
918	-1668
▁knows	-1669
▁ling	-1670
936	-1671
908	-1672
924	-1673
913	-1674
708	-1675
▁scri	-1676
906	-1677
fore	-1678
864	-1679
957	-1680
707	-1681
842	-1682
ely	-1683
▁pas	-1684
746	-1685
843	-1686
021	-1687
063	-1688
▁Con	-1689
fi	-1690
831	-1691
▁bre	-1692
526	-1693
748	-1694
826	-1695
▁39	-1696
745	-1697
▁Pu	-1698
011	-1699
sto	-1700
812	-1701
▁pag	-1702
▁paura	-1703
▁mom	-1704
521	-1705
▁dir	-1706
▁hur	-1707
inn	-1708
▁interess	-1709
517	-1710
739	-1711
▁gre	-1712
▁kne	-1713
727	-1714
765	-1715
anni	-1716
750	-1717
▁giorn	-1718
837	-1719
▁port	-1720
▁English	-1721
962	-1722
▁piano	-1723
▁persone	-1724
▁believe	-1725
780	-1726
960	-1727
▁sho	-1728
▁As	-1729
▁666	-1730
be	-1731
032	-1732
▁Gi	-1733
▁Posso	-1734
ys	-1735
728	-1736
▁17	-1737
066	-1738
▁senza	-1739
522	-1740
747	-1741
▁question	-1742
▁mat	-1743
▁rius	-1744
▁dal	-1745
▁Be	-1746
▁582	-1747
▁pes	-1748
▁died	-1749
▁cose	-1750
510	-1751
hn	-1752
asc	-1753
▁76	-1754
042	-1755
▁ban	-1756
cando	-1757
545	-1758
868	-1759
vin	-1760
▁81	-1761
▁after	-1762
▁madre	-1763
760	-1764
tr	-1765
▁sue	-1766
▁John	-1767
025	-1768
raid	-1769
725	-1770
705	-1771
▁came	-1772
▁likes	-1773
▁state	-1774
▁over	-1775
832	-1776
tenzione	-1777
028	-1778
▁Al	-1779
518	-1780
540	-1781
815	-1782
▁ph	-1783
709	-1784
▁before	-1785
720	-1786
787	-1787
844	-1788
927	-1789
▁Fa	-1790
▁disp	-1791
▁open	-1792
hi	-1793
528	-1794
▁setti	-1795
822	-1796
amo	-1797
▁ini	-1798
▁hear	-1799
lmente	-1800
938	-1801
846	-1802
845	-1803
▁253	-1804
▁poli	-1805
▁afraid	-1806
▁facendo	-1807
essi	-1808
▁settiman	-1809
▁years	-1810
▁mos	-1811
910	-1812
▁life	-1813
▁hope	-1814
865	-1815
iche	-1816
▁261	-1817
788	-1818
angu	-1819
000	-1820
016	-1821
925	-1822
▁knew	-1823
▁incon	-1824
012	-1825
820	-1826
915	-1827
020	-1828
840	-1829
reste	-1830
716	-1831
▁87	-1832
▁ind	-1833
848	-1834
▁stop	-1835
▁qualche	-1836
▁vic	-1837
ister	-1838
548	-1839
▁first	-1840
▁dovuto	-1841
▁die	-1842
817	-1843
869	-1844
arono	-1845
928	-1846
▁lat	-1847
ffe	-1848
▁late	-1849
vate	-1850
▁put	-1851
▁stanza	-1852
755	-1853
▁inv	-1854
847	-1855
935	-1856
▁watch	-1857
968	-1858
esse	-1859
▁proba	-1860
▁spesso	-1861
ared	-1862
▁107	-1863
▁331	-1864
▁piacci	-1865
937	-1866
565	-1867
▁let	-1868
▁often	-1869
▁party	-1870
585	-1871
qua	-1872
▁angry	-1873
▁89	-1874
▁visit	-1875
▁wrong	-1876
715	-1877
arsi	-1878
ittà	-1879
947	-1880
uri	-1881
830	-1882
948	-1883
uni	-1884
▁città	-1885
▁perso	-1886
rella	-1887
▁why	-1888
▁534	-1889
▁piacciono	-1890
▁disc	-1891
mas	-1892
▁married	-1893
▁fl	-1894
▁listen	-1895
560	-1896
989	-1897
▁fil	-1898
905	-1899
920	-1900
▁Vu	-1901
▁domand	-1902
030	-1903
907	-1904
▁dato	-1905
▁amici	-1906
ork	-1907
orse	-1908
vamo	-1909
▁333	-1910
▁113	-1911
▁fosse	-1912
785	-1913
900	-1914
▁hard	-1915
▁answer	-1916
▁telef	-1917
530	-1918
535	-1919
▁devo	-1920
▁739	-1921
038	-1922
▁pizza	-1923
▁343	-1924
▁323	-1925
▁mother	-1926
▁fuori	-1927
▁ric	-1928
▁ba	-1929
008	-1930
987	-1931
988	-1932
717	-1933
965	-1934
pa	-1935
uck	-1936
orning	-1937
718	-1938
▁morning	-1939
567	-1940
ciuto	-1941
828	-1942
959	-1943
524	-1944
849	-1945
▁chiesto	-1946
▁tran	-1947
027	-1948
▁Pre	-1949
810	-1950
orto	-1951
▁student	-1952
▁Com	-1953
▁festa	-1954
▁dri	-1955
inci	-1956
▁haven	-1957
peranto	-1958
▁comple	-1959
fic	-1960
▁111	-1961
035	-1962
eba	-1963
▁hungry	-1964
▁children	-1965
045	-1966
525	-1967
▁Tut	-1968
835	-1969
999	-1970
iste	-1971
zion	-1972
atoeba	-1973
▁called	-1974
▁denaro	-1975
819	-1976
997	-1977
940	-1978
▁proud	-1979
▁ascol	-1980
▁langu	-1981
▁241	-1982
▁May	-1983
▁possi	-1984
elle	-1985
▁cost	-1986
769	-1987
▁gl	-1988
917	-1989
vel	-1990
oy	-1991
▁sap	-1992
759	-1993
▁nerv	-1994
▁heard	-1995
elo	-1996
729	-1997
▁swim	-1998
▁male	-1999
839	-2000
▁nome	-2001
friend	-2002
▁75	-2003
▁walk	-2004
519	-2005
777	-2006
547	-2007
arly	-2008
▁way	-2009
939	-2010
929	-2011
▁fav	-2012
▁contin	-2013
▁things	-2014
010	-2015
▁persona	-2016
▁573	-2017
▁add	-2018
▁Give	-2019
▁veder	-2020
569	-2021
827	-2022
949	-2023
007	-2024
919	-2025
520	-2026
ider	-2027
▁Tatoeba	-2028
▁Pot	-2029
▁anymore	-2030
rite	-2031
▁looks	-2032
ana	-2033
ardi	-2034
ordo	-2035
749	-2036
▁settimana	-2037
ug	-2038
▁Devo	-2039
▁pare	-2040
▁Would	-2041
uttosto	-2042
065	-2043
▁seg	-2044
▁most	-2045
539	-2046
▁If	-2047
▁stanno	-2048
979	-2049
esi	-2050
▁Vole	-2051
549	-2052
969	-2053
▁piuttosto	-2054
▁251	-2055
lain	-2056
vers	-2057
▁successo	-2058
909	-2059
▁No	-2060
tim	-2061
glie	-2062
▁word	-2063
▁degli	-2064
▁bec	-2065
▁person	-2066
▁appena	-2067
037	-2068
719	-2069
iapp	-2070
▁riusci	-2071
utomo	-2072
▁stran	-2073
▁mangiato	-2074
les	-2075
▁711	-2076
▁bic	-2077
508	-2078
attina	-2079
▁studiare	-2080
779	-2081
527	-2082
▁altro	-2083
apan	-2084
▁pret	-2085
039	-2086
040	-2087
967	-2088
789	-2089
▁Japan	-2090
▁differ	-2091
017	-2092
▁foto	-2093
ette	-2094
▁tutte	-2095
▁looking	-2096
onight	-2097
029	-2098
▁663	-2099
▁Ri	-2100
▁255	-2101
▁sorp	-2102
▁anno	-2103
▁dice	-2104
529	-2105
▁amico	-2106
015	-2107
▁pote	-2108
▁Go	-2109
048	-2110
▁ferm	-2111
ada	-2112
▁youn	-2113
▁film	-2114
069	-2115
▁stra	-2116
▁prote	-2117
▁frat	-2118
825	-2119
▁porta	-2120
▁sentito	-2121
▁beg	-2122
▁contro	-2123
ced	-2124
▁prof	-2125
537	-2126
ara	-2127
▁away	-2128
▁186	-2129
▁molti	-2130
▁water	-2131
▁sulla	-2132
▁without	-2133
060	-2134
bili	-2135
▁trovato	-2136
▁notte	-2137
▁diffici	-2138
▁nessuno	-2139
▁244	-2140
829	-2141
▁miss	-2142
▁prendere	-2143
068	-2144
▁caff	-2145
imo	-2146
auto	-2147
887	-2148
▁tonight	-2149
▁273	-2150
▁best	-2151
▁soon	-2152
▁surpr	-2153
067	-2154
▁449	-2155
▁show	-2156
▁count	-2157
018	-2158
oman	-2159
▁Dice	-2160
▁774	-2161
▁sicura	-2162
uth	-2163
▁Vorrei	-2164
▁preferi	-2165
mit	-2166
ffee	-2167
▁TV	-2168
▁these	-2169
ake	-2170
▁caffè	-2171
ished	-2172
remmo	-2173
ettere	-2174
▁stupid	-2175
erman	-2176
▁sed	-2177
▁venire	-2178
▁el	-2179
yo	-2180
▁ragione	-2181
rano	-2182
▁preso	-2183
▁happened	-2184
▁birra	-2185
▁Pro	-2186
▁cle	-2187
▁beer	-2188
▁coffee	-2189
▁Nessuno	-2190
▁started	-2191
888	-2192
▁ciò	-2193
▁lavorare	-2194
▁other	-2195
▁sister	-2196
▁vino	-2197
▁himself	-2198
▁pun	-2199
▁looked	-2200
eme	-2201
ail	-2202
cause	-2203
mento	-2204
▁couldn	-2205
▁prepar	-2206
005	-2207
587	-2208
▁wine	-2209
▁324	-2210
▁Ero	-2211
▁med	-2212
▁being	-2213
▁German	-2214
▁Quanto	-2215
▁174	-2216
ather	-2217
gnor	-2218
isti	-2219
▁pross	-2220
▁Tutti	-2221
▁enj	-2222
049	-2223
▁ama	-2224
▁Does	-2225
▁mista	-2226
▁giov	-2227
880	-2228
▁nei	-2229
▁dimenti	-2230
utomobile	-2231
▁sola	-2232
▁abbia	-2233
047	-2234
580	-2235
▁Chr	-2236
▁274	-2237
aking	-2238
▁69	-2239
▁alc	-2240
▁son	-2241
▁1154	-2242
▁bea	-2243
▁ate	-2244
▁bad	-2245
▁Sh	-2246
▁risp	-2247
asti	-2248
▁dispia	-2249
▁sit	-2250
▁rispos	-2251
▁cercando	-2252
ite	-2253
ugh	-2254
▁dovrebbe	-2255
▁food	-2256
dere	-2257
▁dor	-2258
▁bar	-2259
tto	-2260
▁fine	-2261
sion	-2262
▁auto	-2263
▁finito	-2264
▁books	-2265
▁350	-2266
▁turn	-2267
▁worried	-2268
gna	-2269
used	-2270
ritto	-2271
▁kind	-2272
▁alm	-2273
▁may	-2274
▁154	-2275
▁working	-2276
razi	-2277
cca	-2278
▁quasi	-2279
anz	-2280
▁hurt	-2281
▁ag	-2282
pped	-2283
▁hi	-2284
ket	-2285
▁mie	-2286
▁Mon	-2287
▁boy	-2288
▁difficile	-2289
nts	-2290
▁lives	-2291
▁att	-2292
itori	-2293
557	-2294
usa	-2295
▁97	-2296
▁Gu	-2297
885	-2298
▁381	-2299
▁cook	-2300
641	-2301
▁572	-2302
▁same	-2303
550	-2304
inner	-2305
▁might	-2306
eren	-2307
▁conosce	-2308
arle	-2309
▁Pensavo	-2310
▁parlato	-2311
558	-2312
arli	-2313
iti	-2314
555	-2315
ins	-2316
▁202	-2317
▁molte	-2318
bli	-2319
▁334	-2320
▁cin	-2321
▁Yanni	-2322
sl	-2323
▁cuc	-2324
▁però	-2325
▁libri	-2326
ces	-2327
▁372	-2328
ested	-2329
nis	-2330
▁All	-2331
▁telefono	-2332
▁294	-2333
cchio	-2334
▁another	-2335
pect	-2336
▁phone	-2337
▁convin	-2338
▁inizi	-2339
▁quanto	-2340
▁libr	-2341
▁seems	-2342
▁volte	-2343
▁Sa	-2344
▁226	-2345
▁cibo	-2346
▁rich	-2347
▁able	-2348
▁leggere	-2349
▁break	-2350
astanza	-2351
sieme	-2352
▁1171	-2353
019	-2354
ually	-2355
▁talking	-2356
▁abbastanza	-2357
cri	-2358
hes	-2359
ctor	-2360
tili	-2361
▁276	-2362
▁sera	-2363
▁pay	-2364
▁stai	-2365
▁163	-2366
▁forg	-2367
▁ragazza	-2368
cle	-2369
▁ritardo	-2370
▁225	-2371
▁grado	-2372
805	-2373
▁guid	-2374
▁Las	-2375
▁498	-2376
▁nostro	-2377
▁302	-2378
ans	-2379
▁trust	-2380
bilmente	-2381
▁dist	-2382
▁felt	-2383
▁year	-2384
▁genitori	-2385
acc	-2386
▁His	-2387
▁enjoy	-2388
▁rep	-2389
▁vend	-2390
gether	-2391
▁456	-2392
▁door	-2393
▁Everyone	-2394
▁por	-2395
▁qualcuno	-2396
atemi	-2397
min	-2398
▁avuto	-2399
osp	-2400
atale	-2401
telli	-2402
tal	-2403
▁possiamo	-2404
▁1122	-2405
▁lunch	-2406
▁parents	-2407
085	-2408
579	-2409
▁invi	-2410
▁comprare	-2411
ath	-2412
ria	-2413
osi	-2414
▁626	-2415
▁weren	-2416
▁trovare	-2417
▁riesce	-2418
▁together	-2419
tanto	-2420
▁insegnante	-2421
▁1014	-2422
arò	-2423
utiful	-2424
▁lingua	-2425
▁imparare	-2426
ream	-2427
▁pran	-2428
gliato	-2429
▁because	-2430
▁early	-2431
▁waiting	-2432
▁tennis	-2433
▁544	-2434
▁sick	-2435
▁293	-2436
▁fort	-2437
▁andata	-2438
▁lettera	-2439
▁beautiful	-2440
bliote	-2441
889	-2442
llow	-2443
▁dopo	-2444
ettare	-2445
▁aiuto	-2446
▁bibliote	-2447
olog	-2448
vole	-2449
ccio	-2450
▁sen	-2451
▁real	-2452
ying	-2453
507	-2454
589	-2455
▁reme	-2456
505	-2457
▁dinner	-2458
▁faci	-2459
▁diffic	-2460
▁momento	-2461
cted	-2462
▁164	-2463
edì	-2464
inc	-2465
▁Natale	-2466
▁sarebbe	-2467
▁Es	-2468
▁amiche	-2469
▁cr	-2470
▁forgot	-2471
dia	-2472
ons	-2473
▁bed	-2474
633	-2475
▁z	-2476
▁634	-2477
▁sorella	-2478
▁truth	-2479
▁fortun	-2480
▁brother	-2481
▁vesti	-2482
009	-2483
▁decid	-2484
▁Christ	-2485
▁364	-2486
atti	-2487
▁95	-2488
▁pol	-2489
▁dormi	-2490
▁2111	-2491
dd	-2492
▁337	-2493
▁int	-2494
▁young	-2495
▁dic	-2496
▁perm	-2497
▁suon	-2498
▁music	-2499
▁pensi	-2500
▁pretty	-2501
▁Some	-2502
▁gius	-2503
zzi	-2504
▁family	-2505
▁keep	-2506
▁204	-2507
▁423	-2508
▁almost	-2509
lic	-2510
tel	-2511
vuto	-2512
▁743	-2513
▁write	-2514
▁nostra	-2515
tellig	-2516
▁bravo	-2517
▁sapere	-2518
▁coming	-2519
▁285	-2520
▁kiss	-2521
▁598	-2522
▁Christmas	-2523
▁rice	-2524
▁famiglia	-2525
ates	-2526
lace	-2527
▁doll	-2528
▁true	-2529
▁Qualc	-2530
▁292	-2531
du	-2532
▁290	-2533
▁big	-2534
▁704	-2535
▁rigu	-2536
▁remember	-2537
acqua	-2538
▁Will	-2539
▁tanto	-2540
▁train	-2541
▁fratello	-2542
▁321	-2543
▁383	-2544
ph	-2545
▁soltanto	-2546
▁scar	-2547
▁enough	-2548
int	-2549
▁351	-2550
ating	-2551
▁terri	-2552
▁alt	-2553
▁divent	-2554
tain	-2555
▁avrebbe	-2556
atura	-2557
▁supp	-2558
▁buona	-2559
▁cred	-2560
▁solamente	-2561
▁amm	-2562
631	-2563
▁comm	-2564
080	-2565
▁Av	-2566
cchia	-2567
636	-2568
▁hour	-2569
▁848	-2570
ede	-2571
een	-2572
▁vuoi	-2573
▁166	-2574
▁biblioteca	-2575
atta	-2576
▁anyone	-2577
als	-2578
▁ball	-2579
▁sorry	-2580
▁alcun	-2581
▁figlio	-2582
▁library	-2583
▁seri	-2584
▁295	-2585
▁imm	-2586
▁needs	-2587
▁wi	-2588
▁131	-2589
▁313	-2590
orite	-2591
▁both	-2592
▁cambi	-2593
▁questi	-2594
ile	-2595
▁sk	-2596
▁posto	-2597
estra	-2598
▁654	-2599
▁dent	-2600
bly	-2601
isco	-2602
▁620	-2603
▁nuova	-2604
akes	-2605
▁fam	-2606
▁Monday	-2607
ape	-2608
aria	-2609
▁344	-2610
▁camera	-2611
led	-2612
▁domanda	-2613
▁521	-2614
▁favorite	-2615
559	-2616
▁movi	-2617
▁adv	-2618
pra	-2619
▁verità	-2620
▁238	-2621
▁99	-2622
▁203	-2623
▁tardi	-2624
▁326	-2625
itato	-2626
▁change	-2627
▁serve	-2628
▁anche	-2629
▁spie	-2630
▁concer	-2631
mag	-2632
▁indi	-2633
▁cri	-2634
▁usci	-2635
▁300	-2636
233	-2637
iam	-2638
231	-2639
▁sba	-2640
▁smo	-2641
issero	-2642
▁giovane	-2643
▁trying	-2644
▁interested	-2645
▁mani	-2646
634	-2647
ffic	-2648
222	-2649
232	-2650
▁108	-2651
av	-2652
▁wouldn	-2653
not	-2654
▁386	-2655
▁451	-2656
▁Mio	-2657
▁utili	-2658
▁sb	-2659
▁cold	-2660
▁giocare	-2661
509	-2662
esa	-2663
ident	-2664
▁killed	-2665
▁lunedì	-2666
▁storia	-2667
616	-2668
▁281	-2669
▁sve	-2670
▁such	-2671
▁city	-2672
▁vive	-2673
▁intellig	-2674
altra	-2675
▁modo	-2676
▁182	-2677
▁606	-2678
▁musica	-2679
644	-2680
▁703	-2681
▁109	-2682
▁divert	-2683
632	-2684
ramb	-2685
▁bit	-2686
▁103	-2687
▁glass	-2688
ggiun	-2689
▁free	-2690
▁wear	-2691
234	-2692
809	-2693
▁356	-2694
▁picc	-2695
▁base	-2696
▁velo	-2697
▁hands	-2698
▁menti	-2699
▁forget	-2700
▁Dissero	-2701
▁intenzione	-2702
arvi	-2703
arm	-2704
tito	-2705
▁ingl	-2706
▁follow	-2707
book	-2708
▁arres	-2709
▁continu	-2710
alo	-2711
graf	-2712
▁surprised	-2713
▁575	-2714
▁language	-2715
zed	-2716
▁uomo	-2717
▁liked	-2718
▁parla	-2719
eremo	-2720
oke	-2721
tive	-2722
▁306	-2723
▁301	-2724
▁great	-2725
▁741	-2726
▁Ita	-2727
111	-2728
rate	-2729
▁worry	-2730
▁order	-2731
▁arrabbiato	-2732
▁853	-2733
▁nuotare	-2734
▁scritto	-2735
661	-2736
ber	-2737
ors	-2738
▁song	-2739
▁world	-2740
807	-2741
ggia	-2742
▁myself	-2743
ka	-2744
unk	-2745
▁sotto	-2746
▁canz	-2747
▁690	-2748
▁Deve	-2749
air	-2750
▁sin	-2751
▁riguardo	-2752
241	-2753
612	-2754
▁sec	-2755
▁ment	-2756
▁Vuole	-2757
lly	-2758
▁transl	-2759
▁est	-2760
▁Rima	-2761
▁892	-2762
▁stanco	-2763
▁236	-2764
uso	-2765
▁pop	-2766
▁run	-2767
▁mattina	-2768
▁sad	-2769
hai	-2770
230	-2771
ulti	-2772
king	-2773
▁vivere	-2774
asse	-2775
▁anim	-2776
▁rain	-2777
▁opini	-2778
▁doctor	-2779
▁playing	-2780
▁present	-2781
bus	-2782
▁du	-2783
▁ob	-2784
vono	-2785
▁842	-2786
olf	-2787
tti	-2788
arci	-2789
▁312	-2790
▁ste	-2791
▁provato	-2792
662	-2793
216	-2794
▁vac	-2795
▁Amer	-2796
▁631	-2797
▁pio	-2798
▁2202	-2799
▁place	-2800
sive	-2801
▁mondo	-2802
618	-2803
ressed	-2804
▁propri	-2805
▁andando	-2806
▁dare	-2807
859	-2808
▁Può	-2809
▁1103	-2810
▁fino	-2811
▁wonder	-2812
▁516	-2813
▁181	-2814
▁576	-2815
▁sorpre	-2816
243	-2817
246	-2818
643	-2819
▁ele	-2820
▁lasciato	-2821
▁153	-2822
▁class	-2823
accordo	-2824
here	-2825
ling	-2826
▁183	-2827
▁bambini	-2828
▁Tok	-2829
▁potrebbe	-2830
646	-2831
ank	-2832
▁consi	-2833
614	-2834
▁314	-2835
xi	-2836
▁Qualcuno	-2837
▁279	-2838
▁ref	-2839
rore	-2840
▁206	-2841
▁bag	-2842
erg	-2843
▁buon	-2844
▁692	-2845
▁cena	-2846
▁cominci	-2847
▁Forse	-2848
▁Spero	-2849
▁inglese	-2850
vol	-2851
osed	-2852
▁291	-2853
▁curi	-2854
▁start	-2855
▁arrived	-2856
▁cry	-2857
▁bella	-2858
etro	-2859
617	-2860
▁384	-2861
▁dep	-2862
▁ali	-2863
▁bere	-2864
213	-2865
▁511	-2866
▁tri	-2867
▁scorsa	-2868
tle	-2869
▁fece	-2870
▁shouldn	-2871
▁visi	-2872
▁own	-2873
inato	-2874
▁writ	-2875
gger	-2876
lice	-2877
642	-2878
▁Man	-2879
▁morto	-2880
087	-2881
ucky	-2882
▁245	-2883
▁inn	-2884
▁studying	-2885
630	-2886
▁vista	-2887
ught	-2888
▁Cos	-2889
▁nas	-2890
▁fame	-2891
▁Could	-2892
▁mind	-2893
▁nice	-2894
666	-2895
▁753	-2896
asy	-2897
idente	-2898
▁aspettando	-2899
bre	-2900
▁secon	-2901
▁treno	-2902
▁decisi	-2903
▁eating	-2904
zzato	-2905
▁aspettare	-2906
▁berb	-2907
work	-2908
▁Berb	-2909
▁lasc	-2910
▁puoi	-2911
▁decided	-2912
▁Ave	-2913
239	-2914
▁614	-2915
▁everyone	-2916
▁ir	-2917
▁admit	-2918
▁cannot	-2919
▁Sc	-2920
089	-2921
▁693	-2922
▁reading	-2923
▁442	-2924
▁chiamato	-2925
212	-2926
▁helped	-2927
▁parola	-2928
▁sembrava	-2929
cked	-2930
▁513	-2931
▁quite	-2932
▁resta	-2933
▁sento	-2934
244	-2935
▁528	-2936
▁gel	-2937
▁dica	-2938
▁stessa	-2939
▁453	-2940
▁miglio	-2941
▁Face	-2942
▁wish	-2943
116	-2944
▁691	-2945
▁Berber	-2946
▁country	-2947
▁450	-2948
▁1144	-2949
▁79	-2950
▁squ	-2951
▁ey	-2952
220	-2953
▁inno	-2954
olazione	-2955
268	-2956
▁275	-2957
▁bri	-2958
▁fall	-2959
rote	-2960
▁moglie	-2961
▁venuto	-2962
▁egg	-2963
▁migliore	-2964
▁673	-2965
▁days	-2966
247	-2967
613	-2968
▁pict	-2969
▁332	-2970
▁bet	-2971
▁impegnato	-2972
▁wife	-2973
uomo	-2974
▁colle	-2975
▁month	-2976
▁172	-2977
▁gatto	-2978
▁explain	-2979
▁ol	-2980
▁farà	-2981
▁occupato	-2982
▁632	-2983
je	-2984
ume	-2985
▁finished	-2986
▁girlfriend	-2987
ative	-2988
▁contr	-2989
▁viene	-2990
▁volete	-2991
▁Nob	-2992
▁else	-2993
▁noti	-2994
▁offer	-2995
▁173	-2996
▁Now	-2997
atore	-2998
▁ap	-2999
adil	-3000
▁Fadil	-3001
648	-3002
ossi	-3003
▁ragazzo	-3004
▁257	-3005
▁635	-3006
▁ord	-3007
▁veloce	-3008
▁once	-3009
▁avevo	-3010
635	-3011
▁je	-3012
indi	-3013
▁stati	-3014
▁268	-3015
▁3914	-3016
▁news	-3017
638	-3018
▁144	-3019
▁getting	-3020
▁340	-3021
▁570	-3022
▁golf	-3023
▁pronto	-3024
▁important	-3025
▁super	-3026
▁chiave	-3027
vv	-3028
▁342	-3029
▁Ven	-3030
▁sci	-3031
▁aper	-3032
selves	-3033
▁genti	-3034
▁tutta	-3035
ched	-3036
▁queste	-3037
▁133	-3038
▁396	-3039
età	-3040
▁651	-3041
228	-3042
▁mod	-3043
unque	-3044
▁baseball	-3045
▁parlando	-3046
▁mano	-3047
▁entramb	-3048
reddo	-3049
▁perf	-3050
▁serious	-3051
▁drunk	-3052
▁divertente	-3053
yed	-3054
▁cho	-3055
▁facile	-3056
▁Dobbiamo	-3057
anta	-3058
▁1174	-3059
▁carne	-3060
242	-3061
262	-3062
637	-3063
▁nell	-3064
▁innoc	-3065
▁wrote	-3066
▁Tokyo	-3067
▁dream	-3068
▁triste	-3069
▁basket	-3070
ida	-3071
mmer	-3072
▁866	-3073
▁hair	-3074
▁around	-3075
▁143	-3076
▁Dite	-3077
▁bui	-3078
▁Which	-3079
▁hotel	-3080
▁prefer	-3081
▁interest	-3082
260	-3083
ingl	-3084
▁176	-3085
▁meeting	-3086
▁different	-3087
▁odia	-3088
▁gente	-3089
▁stesso	-3090
zy	-3091
▁Facebook	-3092
fer	-3093
▁603	-3094
▁sim	-3095
ended	-3096
▁tipo	-3097
▁attra	-3098
▁broke	-3099
▁figli	-3100
ning	-3101
▁those	-3102
▁Nobody	-3103
bbero	-3104
▁abit	-3105
▁capp	-3106
▁part	-3107
▁herself	-3108
▁hot	-3109
640	-3110
isce	-3111
▁easy	-3112
▁small	-3113
▁rist	-3114
▁dovrei	-3115
usi	-3116
▁cra	-3117
▁ore	-3118
▁clean	-3119
inglese	-3120
▁sus	-3121
▁pain	-3122
▁berbero	-3123
▁cantare	-3124
▁dentro	-3125
▁giorni	-3126
▁piacerebbe	-3127
620	-3128
urb	-3129
gare	-3130
▁red	-3131
▁rub	-3132
cy	-3133
remo	-3134
▁Stop	-3135
ison	-3136
▁352	-3137
▁Dic	-3138
▁Conos	-3139
▁compr	-3140
▁police	-3141
▁dispiace	-3142
236	-3143
▁vicino	-3144
237	-3145
628	-3146
rai	-3147
▁ring	-3148
▁spend	-3149
▁indoss	-3150
▁probably	-3151
▁difficult	-3152
▁risposta	-3153
ark	-3154
▁tall	-3155
▁perfe	-3156
▁nervous	-3157
▁sf	-3158
fast	-3159
▁exam	-3160
▁orgo	-3161
▁Quello	-3162
▁immedi	-3163
idi	-3164
▁devi	-3165
ple	-3166
▁216	-3167
▁fri	-3168
▁Esperanto	-3169
267	-3170
▁là	-3171
asera	-3172
619	-3173
▁affam	-3174
▁sound	-3175
▁story	-3176
▁incontr	-3177
▁spavent	-3178
218	-3179
▁pane	-3180
▁capelli	-3181
227	-3182
265	-3183
▁donna	-3184
cess	-3185
▁park	-3186
▁171	-3187
land	-3188
▁forte	-3189
▁scarpe	-3190
ined	-3191
059	-3192
665	-3193
dow	-3194
▁imb	-3195
210	-3196
▁rest	-3197
▁medic	-3198
app	-3199
▁few	-3200
▁ing	-3201
▁faccia	-3202
625	-3203
art	-3204
▁blo	-3205
tello	-3206
▁Take	-3207
▁fum	-3208
▁men	-3209
amor	-3210
▁canzone	-3211
▁ed	-3212
▁uo	-3213
▁bread	-3214
▁ret	-3215
▁colazione	-3216
647	-3217
668	-3218
▁ago	-3219
▁appre	-3220
▁semb	-3221
▁sapeva	-3222
▁233	-3223
▁Dan	-3224
▁feri	-3225
▁193	-3226
▁Were	-3227
▁ristor	-3228
eni	-3229
▁287	-3230
▁656	-3231
▁vor	-3232
ory	-3233
▁488	-3234
▁while	-3235
ospi	-3236
▁152	-3237
▁New	-3238
▁tou	-3239
▁loves	-3240
▁deciso	-3241
▁dobbiamo	-3242
615	-3243
▁Ad	-3244
ciate	-3245
▁drive	-3246
▁ur	-3247
▁inform	-3248
▁restaur	-3249
▁errore	-3250
▁innamor	-3251
▁Semb	-3252
▁orgogli	-3253
610	-3254
pon	-3255
▁200	-3256
▁297	-3257
pl	-3258
▁Re	-3259
▁Maybe	-3260
▁yours	-3261
▁immediat	-3262
▁scorso	-3263
▁mistake	-3264
▁restaurant	-3265
▁bel	-3266
▁lic	-3267
115	-3268
▁breakfast	-3269
▁601	-3270
▁assieme	-3271
ru	-3272
226	-3273
▁mine	-3274
▁Anche	-3275
▁mosche	-3276
▁Sm	-3277
ortun	-3278
▁ascolt	-3279
▁strada	-3280
lk	-3281
▁248	-3282
▁304	-3283
▁paid	-3284
▁196	-3285
▁pom	-3286
▁3904	-3287
▁Thank	-3288
▁felici	-3289
▁vorrei	-3290
645	-3291
act	-3292
▁184	-3293
▁volevo	-3294
248	-3295
sero	-3296
▁613	-3297
▁rid	-3298
▁Odio	-3299
▁227	-3300
▁Get	-3301
▁num	-3302
anger	-3303
▁sand	-3304
▁woman	-3305
▁Giapp	-3306
▁having	-3307
▁235	-3308
▁alz	-3309
inare	-3310
▁3913	-3311
▁piedi	-3312
almente	-3313
▁Giappone	-3314
▁sl	-3315
aper	-3316
▁amo	-3317
ziona	-3318
▁Dicono	-3319
▁test	-3320
ggiare	-3321
▁stasera	-3322
214	-3323
217	-3324
▁583	-3325
▁Puoi	-3326
▁meat	-3327
▁thir	-3328
▁living	-3329
ages	-3330
▁676	-3331
▁shoes	-3332
▁wei	-3333
▁3912	-3334
▁acce	-3335
▁Devi	-3336
▁Lond	-3337
▁someone	-3338
▁camb	-3339
▁247	-3340
▁atta	-3341
▁hasn	-3342
▁sell	-3343
▁amica	-3344
▁piang	-3345
▁1886	-3346
118	-3347
▁office	-3348
660	-3349
▁773	-3350
▁importante	-3351
este	-3352
▁443	-3353
▁born	-3354
▁tras	-3355
▁secret	-3356
117	-3357
▁sat	-3358
▁fell	-3359
orma	-3360
▁stare	-3361
top	-3362
▁3918	-3363
..	-3364
▁giusto	-3365
235	-3366
▁mosque	-3367
▁moschea	-3368
639	-3369
bria	-3370
▁Quella	-3371
▁ricord	-3372
automobile	-3373
port	-3374
▁lap	-3375
240	-3376
ann	-3377
▁668	-3378
▁ran	-3379
▁sole	-3380
▁riman	-3381
fied	-3382
▁potete	-3383
▁sapevo	-3384
▁scrivere	-3385
▁leg	-3386
▁pranzo	-3387
▁652	-3388
▁compiti	-3389
▁dormire	-3390
114	-3391
▁peric	-3392
667	-3393
▁441	-3394
▁972	-3395
▁corre	-3396
▁dance	-3397
▁messa	-3398
▁tè	-3399
▁ubria	-3400
razie	-3401
▁diven	-3402
▁homework	-3403
▁Ries	-3404
▁licen	-3405
▁Me	-3406
▁781	-3407
▁law	-3408
▁1024	-3409
▁flow	-3410
▁weekend	-3411
ciuta	-3412
fficio	-3413
▁ristorante	-3414
▁472	-3415
alous	-3416
▁3903	-3417
▁mess	-3418
▁loved	-3419
▁fotograf	-3420
ela	-3421
▁452	-3422
▁cant	-3423
▁tea	-3424
▁lont	-3425
▁perfect	-3426
erra	-3427
▁315	-3428
▁Look	-3429
▁high	-3430
▁occhi	-3431
enn	-3432
▁trad	-3433
▁scared	-3434
▁cir	-3435
▁botti	-3436
▁iniziato	-3437
238	-3438
ring	-3439
ction	-3440
▁became	-3441
629	-3442
where	-3443
▁3911	-3444
▁perd	-3445
▁fish	-3446
gliamo	-3447
▁spent	-3448
itar	-3449
▁240	-3450
▁552	-3451
▁798	-3452
▁alb	-3453
▁salv	-3454
▁preferito	-3455
eso	-3456
ologi	-3457
▁pall	-3458
iappon	-3459
▁paese	-3460
▁giappon	-3461
225	-3462
▁134	-3463
adi	-3464
tta	-3465
▁993	-3466
ts	-3467
▁baci	-3468
▁jealous	-3469
▁105	-3470
▁smi	-3471
▁dotto	-3472
▁ignor	-3473
▁fire	-3474
▁Grazie	-3475
245	-3476
649	-3477
▁window	-3478
▁Japanese	-3479
arà	-3480
urch	-3481
▁sarò	-3482
▁lucky	-3483
▁sentence	-3484
▁nego	-3485
▁dieci	-3486
ughter	-3487
▁fix	-3488
▁milk	-3489
▁near	-3490
669	-3491
▁701	-3492
▁bor	-3493
▁conta	-3494
▁sopra	-3495
▁return	-3496
▁usually	-3497
▁mean	-3498
▁migli	-3499
▁andate	-3500
215	-3501
▁Aren	-3502
▁game	-3503
▁summer	-3504
omi	-3505
▁ripar	-3506
gar	-3507
▁681	-3508
▁stavo	-3509
lu	-3510
tern	-3511
▁231	-3512
▁3907	-3513
▁pronta	-3514
▁501	-3515
▁970	-3516
▁1184	-3517
▁danger	-3518
▁piaceva	-3519
▁problemi	-3520
▁446	-3521
▁succed	-3522
▁scel	-3523
▁act	-3524
▁students	-3525
▁ce	-3526
▁alto	-3527
▁dead	-3528
▁movie	-3529
▁siano	-3530
▁im	-3531
▁ben	-3532
▁dia	-3533
▁uni	-3534
sione	-3535
▁head	-3536
▁latte	-3537
▁laptop	-3538
▁Mia	-3539
▁reas	-3540
▁tuoi	-3541
thers	-3542
▁invit	-3543
113	-3544
▁4502	-3545
▁mand	-3546
▁soli	-3547
▁specia	-3548
▁rifi	-3549
tamento	-3550
▁zo	-3551
▁3908	-3552
▁strong	-3553
▁changed	-3554
▁168	-3555
▁682	-3556
▁696	-3557
▁906	-3558
▁502	-3559
▁Cer	-3560
▁sign	-3561
▁talked	-3562
▁dovremmo	-3563
▁imparato	-3564
219	-3565
▁543	-3566
▁684	-3567
▁travel	-3568
▁polizia	-3569
▁om	-3570
▁fis	-3571
▁feeling	-3572
▁604	-3573
▁776	-3574
▁Cor	-3575
▁pra	-3576
▁questions	-3577
alth	-3578
▁694	-3579
▁cav	-3580
▁3906	-3581
▁arm	-3582
▁kept	-3583
▁impie	-3584
▁nascon	-3585
▁proprio	-3586
▁713	-3587
▁Our	-3588
▁air	-3589
▁Parl	-3590
isc	-3591
▁Va	-3592
gliono	-3593
▁passato	-3594
▁355	-3595
istic	-3596
▁later	-3597
▁stiamo	-3598
▁safe	-3599
▁yourself	-3600
▁themselves	-3601
▁242	-3602
▁div	-3603
▁stia	-3604
▁began	-3605
229	-3606
▁lu	-3607
▁agree	-3608
▁condi	-3609
▁bottle	-3610
▁calc	-3611
▁tree	-3612
▁hid	-3613
119	-3614
gato	-3615
▁fast	-3616
▁segui	-3617
▁prossimo	-3618
uss	-3619
▁altri	-3620
▁played	-3621
▁316	-3622
▁lie	-3623
▁Te	-3624
▁trou	-3625
▁piac	-3626
▁puli	-3627
▁segre	-3628
▁vincere	-3629
▁attenzione	-3630
▁sandw	-3631
▁336	-3632
▁dan	-3633
▁gone	-3634
▁thinks	-3635
▁watching	-3636
▁pat	-3637
▁sport	-3638
▁preoccupato	-3639
▁apologi	-3640
▁Vuoi	-3641
▁194	-3642
▁works	-3643
627	-3644
isto	-3645
▁280	-3646
▁mer	-3647
▁bring	-3648
▁testa	-3649
▁times	-3650
▁suonare	-3651
▁racc	-3652
▁frase	-3653
▁dottore	-3654
bbia	-3655
▁scus	-3656
▁gentile	-3657
▁sil	-3658
▁tren	-3659
▁regalo	-3660
ossa	-3661
▁486	-3662
▁496	-3663
▁Sare	-3664
▁dovete	-3665
▁necess	-3666
▁conosco	-3667
isf	-3668
▁Su	-3669
▁791	-3670
▁873	-3671
▁161	-3672
onest	-3673
▁lar	-3674
▁tav	-3675
▁fut	-3676
▁lived	-3677
▁against	-3678
▁bottiglia	-3679
▁err	-3680
ations	-3681
▁primo	-3682
▁prossima	-3683
bito	-3684
▁key	-3685
▁vecchio	-3686
▁3910	-3687
▁eyes	-3688
rem	-3689
▁Quanti	-3690
▁messo	-3691
249	-3692
ush	-3693
orso	-3694
▁light	-3695
▁professo	-3696
▁3915	-3697
▁older	-3698
▁1186	-3699
▁daughter	-3700
▁482	-3701
▁end	-3702
▁guidare	-3703
rance	-3704
▁1011	-3705
▁trasc	-3706
▁151	-3707
▁beh	-3708
▁stanca	-3709
▁hours	-3710
▁utilizz	-3711
▁3916	-3712
▁reco	-3713
▁fatta	-3714
▁become	-3715
▁interesting	-3716
▁Vor	-3717
allow	-3718
▁cres	-3719
▁vide	-3720
▁parole	-3721
part	-3722
▁747	-3723
▁anzi	-3724
▁Guard	-3725
▁admitted	-3726
less	-3727
▁prep	-3728
▁mangia	-3729
▁consider	-3730
by	-3731
eep	-3732
eria	-3733
ming	-3734
▁diverti	-3735
▁stopped	-3736
utta	-3737
▁374	-3738
▁quick	-3739
▁752	-3740
▁freddo	-3741
▁Not	-3742
rank	-3743
▁218	-3744
▁802	-3745
▁disturb	-3746
▁picture	-3747
▁arrivato	-3748
▁sbagliato	-3749
▁277	-3750
▁Ora	-3751
▁abs	-3752
atica	-3753
▁7404	-3754
▁434	-3755
▁lea	-3756
▁zoo	-3757
ently	-3758
▁Pote	-3759
▁mori	-3760
▁semplice	-3761
▁885	-3762
▁vinto	-3763
▁ot	-3764
▁376	-3765
▁suff	-3766
▁buono	-3767
▁cinque	-3768
▁voglia	-3769
▁192	-3770
▁radio	-3771
▁593	-3772
▁clot	-3773
▁These	-3774
▁266	-3775
▁473	-3776
▁appro	-3777
▁riuni	-3778
▁touch	-3779
▁impres	-3780
▁531	-3781
▁taxi	-3782
▁figlia	-3783
▁seemed	-3784
431	-3785
▁cuo	-3786
▁thank	-3787
269	-3788
▁town	-3789
▁table	-3790
▁mentre	-3791
▁needed	-3792
▁odio	-3793
mon	-3794
▁odi	-3795
▁prog	-3796
▁lavora	-3797
▁lose	-3798
110	-3799
▁Fe	-3800
▁team	-3801
▁bambino	-3802
▁intelligente	-3803
▁uova	-3804
enta	-3805
▁reali	-3806
▁260	-3807
▁506	-3808
▁emo	-3809
▁fre	-3810
▁971	-3811
▁Amo	-3812
▁andati	-3813
▁invited	-3814
oun	-3815
▁At	-3816
ensive	-3817
ccato	-3818
kes	-3819
▁494	-3820
essun	-3821
vendo	-3822
▁number	-3823
▁pensate	-3824
▁art	-3825
▁mag	-3826
▁eggs	-3827
▁automobile	-3828
▁335	-3829
▁dura	-3830
▁uscire	-3831
▁numero	-3832
▁impegnata	-3833
432	-3834
▁Am	-3835
▁322	-3836
▁532	-3837
▁Stai	-3838
▁Her	-3839
▁Par	-3840
▁fidanz	-3841
▁dissero	-3842
▁wearing	-3843
410	-3844
▁bello	-3845
▁lavorando	-3846
▁probabilmente	-3847
tions	-3848
▁chiedere	-3849
▁98	-3850
▁420	-3851
altro	-3852
▁learning	-3853
une	-3854
ject	-3855
ences	-3856
olore	-3857
▁viol	-3858
▁chiamare	-3859
▁boyfriend	-3860
tte	-3861
pido	-3862
▁633	-3863
▁cad	-3864
inted	-3865
▁bicy	-3866
▁Quale	-3867
▁abita	-3868
▁studenti	-3869
▁Prend	-3870
▁lungo	-3871
▁Fare	-3872
▁squad	-3873
em	-3874
▁slow	-3875
otte	-3876
erete	-3877
▁andò	-3878
▁possibile	-3879
30.	-3880
enica	-3881
▁scord	-3882
tit	-3883
▁258	-3884
▁270	-3885
▁671	-3886
▁sapp	-3887
▁crede	-3888
▁laugh	-3889
▁protect	-3890
ip	-3891
▁Mr	-3892
▁exact	-3893
▁3905	-3894
▁farò	-3895
▁grand	-3896
come	-3897
▁sun	-3898
▁fant	-3899
▁telev	-3900
▁Potete	-3901
▁pomeri	-3902
▁turned	-3903
ennad	-3904
imento	-3905
▁Dovete	-3906
▁Mennad	-3907
▁sposato	-3908
▁interessante	-3909
ghb	-3910
▁cent	-3911
▁accident	-3912
▁occupata	-3913
▁rip	-3914
▁basta	-3915
▁eaten	-3916
▁220	-3917
estro	-3918
▁neighb	-3919
▁pomeriggio	-3920
▁cut	-3921
▁sai	-3922
▁domande	-3923
▁sandwich	-3924
▁156	-3925
▁makes	-3926
▁cavall	-3927
▁giapponese	-3928
▁198	-3929
▁624	-3930
▁swe	-3931
112	-3932
▁702	-3933
▁2013	-3934
▁lingue	-3935
▁morire	-3936
▁vostri	-3937
▁portato	-3938
utes	-3939
▁541	-3940
▁mis	-3941
▁Cont	-3942
▁squadra	-3943
434	-3944
▁361	-3945
▁age	-3946
▁sentire	-3947
esperanto	-3948
▁123	-3949
▁228	-3950
▁414	-3951
▁586	-3952
▁York	-3953
▁sold	-3954
▁America	-3955
▁aiutato	-3956
▁trouble	-3957
feri	-3958
oria	-3959
▁672	-3960
▁languages	-3961
▁826	-3962
▁891	-3963
▁snow	-3964
insegn	-3965
▁chiama	-3966
▁worked	-3967
▁afterno	-3968
▁655	-3969
▁Lav	-3970
▁face	-3971
▁foot	-3972
▁full	-3973
▁guardando	-3974
ert	-3975
verà	-3976
▁523	-3977
▁Try	-3978
▁each	-3979
▁five	-3980
▁hospi	-3981
▁learned	-3982
entemente	-3983
▁finestra	-3984
▁expect	-3985
▁genere	-3986
ron	-3987
reet	-3988
▁arrabbiata	-3989
▁chiese	-3990
▁making	-3991
side	-3992
▁514	-3993
▁opp	-3994
▁meno	-3995
▁build	-3996
▁Volete	-3997
▁importa	-3998
▁words	-3999
▁317	-4000
▁Sun	-4001
▁afternoon	-4002
▁602	-4003
▁disa	-4004
▁mese	-4005
oraggi	-4006
▁ricco	-4007
▁church	-4008
▁exc	-4009
▁ill	-4010
▁3920	-4011
▁apri	-4012
▁tavolo	-4013
▁567	-4014
▁rim	-4015
▁Pens	-4016
▁black	-4017
416	-4018
▁481	-4019
andon	-4020
atevi	-4021
ddisf	-4022
▁conc	-4023
▁brava	-4024
▁respon	-4025
▁stazione	-4026
ott	-4027
▁263	-4028
▁876	-4029
▁canad	-4030
▁rapid	-4031
▁Canadi	-4032
enda	-4033
▁165	-4034
▁kid	-4035
▁esat	-4036
▁warn	-4037
▁gioco	-4038
▁honest	-4039
▁swimming	-4040
insegnante	-4041
▁cominciato	-4042
▁362	-4043
▁Call	-4044
▁vestiti	-4045
ghi	-4046
▁239	-4047
▁553	-4048
▁577	-4049
▁schi	-4050
▁chiesa	-4051
▁lasciare	-4052
ual	-4053
▁474	-4054
▁Tutto	-4055
▁costo	-4056
peri	-4057
▁591	-4058
▁887	-4059
▁umb	-4060
▁diede	-4061
▁venuta	-4062
▁Was	-4063
▁sco	-4064
▁longer	-4065
▁partire	-4066
▁121	-4067
▁303	-4068
▁Mang	-4069
▁possono	-4070
▁prestito	-4071
▁sub	-4072
▁since	-4073
▁usare	-4074
▁sentiva	-4075
▁station	-4076
▁246	-4077
▁box	-4078
▁brought	-4079
▁564	-4080
▁778	-4081
▁sugg	-4082
▁ricevuto	-4083
osped	-4084
▁chiedo	-4085
ss	-4086
rante	-4087
▁evening	-4088
▁minutes	-4089
▁controll	-4090
anco	-4091
▁goes	-4092
til	-4093
▁Da	-4094
▁250	-4095
▁cammin	-4096
▁bicycle	-4097
gia	-4098
▁493	-4099
▁792	-4100
iness	-4101
ny	-4102
▁taking	-4103
▁riunione	-4104
▁tol	-4105
▁canc	-4106
▁expensive	-4107
▁413	-4108
▁471	-4109
▁Ecco	-4110
▁also	-4111
▁impiego	-4112
▁esattamente	-4113
▁3917	-4114
▁asleep	-4115
▁signor	-4116
▁clothes	-4117
▁exactly	-4118
oup	-4119
▁To	-4120
anche	-4121
▁gener	-4122
▁restare	-4123
▁hat	-4124
▁vedo	-4125
▁which	-4126
ness	-4127
▁125	-4128
▁dro	-4129
▁occhia	-4130
▁838	-4131
▁894	-4132
astidi	-4133
▁parco	-4134
▁ucciso	-4135
▁299	-4136
▁310	-4137
▁anybody	-4138
▁hospital	-4139
▁Dio	-4140
geria	-4141
▁save	-4142
▁State	-4143
▁borrow	-4144
▁dollari	-4145
▁glasses	-4146
▁viaggio	-4147
tici	-4148
gram	-4149
resa	-4150
▁298	-4151
▁325	-4152
▁431	-4153
▁433	-4154
▁abitu	-4155
▁arrest	-4156
▁305	-4157
▁734	-4158
▁pazi	-4159
▁Sunday	-4160
▁cercato	-4161
▁ufficio	-4162
▁Potrebbe	-4163
son	-4164
▁Sk	-4165
erai	-4166
tivo	-4167
▁158	-4168
▁890	-4169
▁occhiali	-4170
▁124	-4171
▁780	-4172
▁Jack	-4173
▁morte	-4174
▁quell	-4175
▁behind	-4176
▁complain	-4177
ned	-4178
▁molta	-4179
▁matter	-4180
▁ritorn	-4181
▁716	-4182
tendo	-4183
▁missed	-4184
▁422	-4185
▁guardare	-4186
▁pati	-4187
▁rend	-4188
▁500	-4189
▁585	-4190
▁1176	-4191
▁Franc	-4192
▁avrei	-4193
▁capire	-4194
issi	-4195
▁piaciuto	-4196
▁God	-4197
▁fra	-4198
▁scat	-4199
418	-4200
433	-4201
amed	-4202
▁426	-4203
▁kni	-4204
▁incont	-4205
ets	-4206
ken	-4207
assi	-4208
▁pesce	-4209
▁Everybody	-4210
▁463	-4211
▁667	-4212
▁714	-4213
▁caught	-4214
ospedale	-4215
▁disappo	-4216
▁televisi	-4217
▁Ar	-4218
▁pan	-4219
ention	-4220
▁impossi	-4221
▁negozio	-4222
zie	-4223
▁piani	-4224
leas	-4225
▁189	-4226
▁375	-4227
▁524	-4228
▁824	-4229
▁pubb	-4230
▁dispos	-4231
▁strano	-4232
▁vogliono	-4233
ammi	-4234
▁213	-4235
▁214	-4236
▁Euro	-4237
▁rifiut	-4238
▁ug	-4239
▁411	-4240
▁600	-4241
▁apart	-4242
▁deser	-4243
rebbero	-4244
fo	-4245
435	-4246
436	-4247
ende	-4248
▁mas	-4249
▁vill	-4250
ultima	-4251
pping	-4252
rendo	-4253
▁heart	-4254
▁domenica	-4255
▁2821	-4256
▁Poss	-4257
▁birth	-4258
▁roman	-4259
▁giocato	-4260
▁rimanere	-4261
conom	-4262
▁3909	-4263
▁less	-4264
elcome	-4265
▁conosc	-4266
▁propos	-4267
ened	-4268
erlo	-4269
▁348	-4270
▁cli	-4271
▁then	-4272
▁incol	-4273
▁perdere	-4274
▁promised	-4275
ical	-4276
▁sel	-4277
retta	-4278
▁soddisf	-4279
417	-4280
▁pensavo	-4281
▁recogni	-4282
▁thinking	-4283
▁impression	-4284
▁Sape	-4285
▁490	-4286
ented	-4287
erebbe	-4288
▁Adesso	-4289
▁fumare	-4290
▁giornata	-4291
ppy	-4292
iale	-4293
▁436	-4294
▁def	-4295
▁1181	-4296
▁reli	-4297
▁umbrella	-4298
ama	-4299
▁sull	-4300
▁until	-4301
brello	-4302
▁sapete	-4303
▁solito	-4304
▁enjoyed	-4305
▁320	-4306
▁Cre	-4307
▁2011	-4308
any	-4309
▁190	-4310
▁197	-4311
▁262	-4312
▁269	-4313
▁607	-4314
▁pie	-4315
autobus	-4316
irt	-4317
zze	-4318
▁Sai	-4319
▁hated	-4320
▁rimas	-4321
▁basketball	-4322
▁Oh	-4323
▁Pe	-4324
ular	-4325
▁8476	-4326
▁impro	-4327
▁aiutarla	-4328
dge	-4329
lità	-4330
onte	-4331
▁808	-4332
ologio	-4333
▁farla	-4334
▁thirty	-4335
cil	-4336
vid	-4337
ania	-4338
▁421	-4339
▁7403	-4340
▁lied	-4341
▁Intern	-4342
▁Quante	-4343
▁natura	-4344
▁immediatamente	-4345
rete	-4346
rice	-4347
▁tas	-4348
▁capita	-4349
▁Dovrebbe	-4350
ged	-4351
rend	-4352
▁522	-4353
▁772	-4354
▁1026	-4355
▁thre	-4356
▁errori	-4357
▁hu	-4358
▁288	-4359
▁594	-4360
▁caso	-4361
▁dogs	-4362
▁frasi	-4363
▁ricon	-4364
▁war	-4365
▁Sarà	-4366
▁tick	-4367
▁passe	-4368
▁rather	-4369
▁dicendo	-4370
yoto	-4371
▁278	-4372
▁464	-4373
▁871	-4374
▁trip	-4375
▁bevuto	-4376
▁guerra	-4377
▁strange	-4378
▁837	-4379
inese	-4380
▁short	-4381
▁famous	-4382
▁opened	-4383
▁diventare	-4384
fu	-4385
ered	-4386
▁561	-4387
▁six	-4388
▁Pensi	-4389
▁reason	-4390
▁outside	-4391
444	-4392
ermi	-4393
▁495	-4394
▁mentito	-4395
▁sorpresa	-4396
▁conosciuto	-4397
349	-4398
▁595	-4399
▁emb	-4400
▁Sarò	-4401
▁Lascia	-4402
▁stayed	-4403
415	-4404
hip	-4405
▁cop	-4406
▁tal	-4407
▁plans	-4408
▁entrambi	-4409
438	-4410
▁thr	-4411
▁dirlo	-4412
▁rispond	-4413
412	-4414
430	-4415
▁na	-4416
gani	-4417
▁563	-4418
▁forma	-4419
▁health	-4420
▁princi	-4421
▁avevano	-4422
▁cappello	-4423
▁366	-4424
▁611	-4425
▁Volevo	-4426
▁realtà	-4427
alloween	-4428
437	-4429
446	-4430
▁appar	-4431
▁bicchi	-4432
▁problems	-4433
▁dur	-4434
▁translate	-4435
eranno	-4436
▁bigli	-4437
▁Stiamo	-4438
▁Halloween	-4439
▁sentences	-4440
▁622	-4441
▁qual	-4442
▁piccolo	-4443
▁stupido	-4444
▁interessato	-4445
ature	-4446
ton	-4447
▁394	-4448
atter	-4449
▁Contin	-4450
▁advice	-4451
▁licenzi	-4452
▁riconos	-4453
▁messaggio	-4454
340	-4455
441	-4456
▁658	-4457
▁rotto	-4458
▁pencil	-4459
▁dimenticato	-4460
icl	-4461
udi	-4462
▁jo	-4463
rere	-4464
▁132	-4465
▁669	-4466
▁836	-4467
▁1173	-4468
▁Fu	-4469
▁504	-4470
▁lim	-4471
▁white	-4472
▁provando	-4473
ude	-4474
▁554	-4475
times	-4476
▁Port	-4477
▁studied	-4478
▁491	-4479
▁Dovresti	-4480
▁everybody	-4481
▁ann	-4482
▁risol	-4483
425	-4484
val	-4485
▁578	-4486
▁apple	-4487
▁moment	-4488
336	-4489
▁680	-4490
▁Mol	-4491
▁drinking	-4492
337	-4493
▁771	-4494
▁7384	-4495
▁hide	-4496
▁funzion	-4497
▁sorpreso	-4498
▁367	-4499
▁800	-4500
▁inside	-4501
▁visited	-4502
▁On	-4503
▁prepared	-4504
irm	-4505
omm	-4506
sta	-4507
▁through	-4508
▁indossando	-4509
▁catt	-4510
▁rela	-4511
▁Should	-4512
▁smoking	-4513
rom	-4514
vai	-4515
▁953	-4516
▁avv	-4517
▁Here	-4518
▁Just	-4519
▁incre	-4520
▁malato	-4521
▁completamente	-4522
414	-4523
cip	-4524
tiv	-4525
rass	-4526
aglia	-4527
▁crazy	-4528
443	-4529
▁122	-4530
inter	-4531
▁bank	-4532
▁fossi	-4533
▁speaks	-4534
▁pericol	-4535
▁tornare	-4536
▁Stay	-4537
▁sper	-4538
▁drank	-4539
▁promise	-4540
erci	-4541
▁desk	-4542
▁riso	-4543
▁fiume	-4544
▁serio	-4545
▁calcio	-4546
▁Sembrava	-4547
ward	-4548
▁318	-4549
▁388	-4550
▁dip	-4551
▁caldo	-4552
▁partita	-4553
▁Internet	-4554
346	-4555
429	-4556
447	-4557
ace	-4558
▁mati	-4559
▁entrare	-4560
sti	-4561
ight	-4562
▁nasc	-4563
▁allerg	-4564
▁incontrato	-4565
▁661	-4566
▁fiori	-4567
▁stand	-4568
▁581	-4569
▁Stavo	-4570
▁finish	-4571
▁vecchia	-4572
rib	-4573
ucch	-4574
▁hum	-4575
▁vada	-4576
▁avver	-4577
▁cani	-4578
▁andrà	-4579
▁verrà	-4580
▁closed	-4581
▁certain	-4582
▁message	-4583
Australia	-4584
428	-4585
▁526	-4586
▁670	-4587
▁cur	-4588
▁mem	-4589
▁move	-4590
▁wall	-4591
▁Lasci	-4592
▁tornato	-4593
▁willing	-4594
▁studiando	-4595
lock	-4596
▁415	-4597
▁790	-4598
▁sosp	-4599
▁uccider	-4600
▁Germania	-4601
▁possible	-4602
▁ow	-4603
pted	-4604
▁eff	-4605
▁spia	-4606
▁funny	-4607
▁chiavi	-4608
▁strani	-4609
▁Germany	-4610
▁apologize	-4611
▁dangerous	-4612
cò	-4613
▁blu	-4614
▁its	-4615
▁vado	-4616
▁close	-4617
▁minuti	-4618
▁Pensate	-4619
".	-4620
atic	-4621
▁river	-4622
▁rubato	-4623
440	-4624
ween	-4625
▁guy	-4626
ument	-4627
▁Skura	-4628
▁quale	-4629
▁econom	-4630
▁Chinese	-4631
▁neanche	-4632
ub	-4633
▁689	-4634
▁zucch	-4635
▁prison	-4636
▁preoccupata	-4637
mmeno	-4638
▁allo	-4639
▁penna	-4640
▁insieme	-4641
▁Rim	-4642
▁ted	-4643
▁flowers	-4644
▁opinion	-4645
▁cambiato	-4646
▁coltello	-4647
ator	-4648
▁657	-4649
▁dai	-4650
▁deb	-4651
▁giard	-4652
duc	-4653
ric	-4654
iasi	-4655
tore	-4656
▁237	-4657
usted	-4658
▁poor	-4659
▁blame	-4660
▁comes	-4661
▁knife	-4662
▁provare	-4663
334	-4664
uit	-4665
▁dorm	-4666
▁mari	-4667
▁death	-4668
335	-4669
esame	-4670
▁whole	-4671
esco	-4672
hoto	-4673
▁596	-4674
▁803	-4675
▁App	-4676
▁rel	-4677
▁appe	-4678
▁fail	-4679
▁keys	-4680
▁hates	-4681
▁recei	-4682
▁pagato	-4683
319	-4684
439	-4685
irà	-4686
▁378	-4687
▁gam	-4688
itter	-4689
▁2245	-4690
ggiung	-4691
▁nessun	-4692
▁studiato	-4693
▁apartment	-4694
ony	-4695
tica	-4696
▁721	-4697
▁aut	-4698
▁tur	-4699
hetti	-4700
▁7402	-4701
▁danz	-4702
▁situ	-4703
▁perse	-4704
▁capisco	-4705
▁cucinare	-4706
▁mistakes	-4707
413	-4708
▁590	-4709
▁872	-4710
▁photo	-4711
▁piangere	-4712
itc	-4713
room	-4714
▁439	-4715
▁servi	-4716
▁scatola	-4717
▁cambiare	-4718
oth	-4719
▁677	-4720
448	-4721
▁Tw	-4722
ammo	-4723
▁Sap	-4724
arden	-4725
vious	-4726
▁curious	-4727
▁writing	-4728
▁ril	-4729
▁7386	-4730
▁scon	-4731
▁price	-4732
▁birthday	-4733
ured	-4734
▁210	-4735
avete	-4736
olare	-4737
▁voce	-4738
▁Corano	-4739
▁miglior	-4740
▁blue	-4741
▁between	-4742
▁pensare	-4743
445	-4744
▁Gio	-4745
▁sang	-4746
▁soff	-4747
▁dollars	-4748
▁lontano	-4749
▁Everything	-4750
ial	-4751
asso	-4752
▁358	-4753
▁rapp	-4754
▁garden	-4755
▁speaking	-4756
419	-4757
▁Fin	-4758
▁batt	-4759
▁rosso	-4760
aghetti	-4761
▁imbara	-4762
aramente	-4763
▁1090	-4764
▁gift	-4765
▁spar	-4766
▁compleanno	-4767
'.	-4768
427	-4769
▁Asp	-4770
▁lying	-4771
▁weather	-4772
▁duramente	-4773
▁556	-4774
▁cup	-4775
▁dou	-4776
tical	-4777
▁Oggi	-4778
▁pagare	-4779
▁careful	-4780
▁quickly	-4781
▁vestito	-4782
ago	-4783
iate	-4784
idea	-4785
ismo	-4786
▁162	-4787
▁deli	-4788
▁dovresti	-4789
331	-4790
▁bac	-4791
▁tue	-4792
▁bici	-4793
omini	-4794
▁send	-4795
▁Quran	-4796
▁dietro	-4797
▁svegli	-4798
▁zucchero	-4799
ko	-4800
▁cell	-4801
orment	-4802
▁allow	-4803
▁prezzo	-4804
▁second	-4805
▁338	-4806
▁2546	-4807
▁classe	-4808
▁quindi	-4809
▁Possiamo	-4810
348	-4811
tely	-4812
▁fer	-4813
▁solu	-4814
omen	-4815
▁One	-4816
▁età	-4817
▁ride	-4818
▁quest	-4819
▁others	-4820
lf	-4821
338	-4822
▁783	-4823
▁shot	-4824
▁faccio	-4825
▁rapidamente	-4826
onn	-4827
▁483	-4828
▁484	-4829
▁592	-4830
▁gru	-4831
▁Quel	-4832
▁Chiam	-4833
▁uccid	-4834
▁conosci	-4835
▁Canadian	-4836
▁information	-4837
ware	-4838
▁hit	-4839
▁1091	-4840
▁dite	-4841
▁ugly	-4842
▁matita	-4843
▁leaving	-4844
▁riusciva	-4845
442	-4846
irus	-4847
▁beat	-4848
▁spaghetti	-4849
for	-4850
line	-4851
▁torta	-4852
▁accept	-4853
339	-4854
▁854	-4855
▁esc	-4856
atori	-4857
▁otto	-4858
▁vivo	-4859
▁fruit	-4860
▁hurry	-4861
▁tradi	-4862
iamente	-4863
▁Sapete	-4864
▁autobus	-4865
314	-4866
▁Af	-4867
perto	-4868
bilità	-4869
▁permesso	-4870
▁But	-4871
▁dra	-4872
▁four	-4873
▁France	-4874
▁aperto	-4875
▁building	-4876
▁ul	-4877
ereo	-4878
otti	-4879
▁web	-4880
▁7401	-4881
▁mela	-4882
▁siate	-4883
versità	-4884
▁prigione	-4885
acchi	-4886
ciato	-4887
▁Aveva	-4888
urre	-4889
▁126	-4890
▁1023	-4891
▁bored	-4892
▁cucina	-4893
449	-4894
▁625	-4895
▁777	-4896
▁arg	-4897
▁pub	-4898
▁sarei	-4899
▁sleepy	-4900
ood	-4901
dendo	-4902
▁grow	-4903
▁divor	-4904
▁embar	-4905
▁manca	-4906
▁bicicl	-4907
▁Ex	-4908
ures	-4909
▁emp	-4910
▁lawy	-4911
▁ragazzi	-4912
▁230	-4913
▁492	-4914
▁1156	-4915
▁soft	-4916
▁likely	-4917
▁nemmeno	-4918
▁embarrass	-4919
312	-4920
eth	-4921
ists	-4922
▁546	-4923
ggior	-4924
▁alta	-4925
▁Francia	-4926
420	-4927
cks	-4928
▁520	-4929
▁donne	-4930
▁spero	-4931
▁sugar	-4932
317	-4933
eric	-4934
▁584	-4935
vered	-4936
▁case	-4937
▁catch	-4938
▁saying	-4939
▁ombrello	-4940
▁387	-4941
▁645	-4942
attro	-4943
▁pess	-4944
▁Andiamo	-4945
cche	-4946
▁616	-4947
▁legge	-4948
▁uomini	-4949
▁535	-4950
ither	-4951
▁404	-4952
▁996	-4953
ziare	-4954
▁8475	-4955
▁cuore	-4956
▁quelle	-4957
▁cavallo	-4958
▁durante	-4959
▁portare	-4960
▁segreto	-4961
▁mangiando	-4962
▁rispondere	-4963
▁gui	-4964
▁ori	-4965
▁fight	-4966
▁street	-4967
▁ballare	-4968
▁ordered	-4969
▁440	-4970
▁igno	-4971
▁scop	-4972
▁dress	-4973
▁finire	-4974
▁minuto	-4975
▁perdon	-4976
318	-4977
▁colpa	-4978
▁spoke	-4979
▁confused	-4980
ount	-4981
▁328	-4982
▁610	-4983
▁rif	-4984
amore	-4985
▁2247	-4986
▁beve	-4987
▁dark	-4988
▁scriv	-4989
▁libero	-4990
▁aspetta	-4991
310	-4992
▁gri	-4993
itting	-4994
▁correct	-4995
▁612	-4996
▁infel	-4997
▁giardino	-4998
cate	-4999
verò	-5000
▁357	-5001
▁Has	-5002
▁oss	-5003
▁shy	-5004
▁biro	-5005
▁glad	-5006
▁stole	-5007
▁nostri	-5008
▁vederla	-5009
313	-5010
cing	-5011
lian	-5012
▁Tro	-5013
▁lead	-5014
▁stam	-5015
▁Erano	-5016
▁Proba	-5017
▁altre	-5018
▁gover	-5019
▁poteva	-5020
▁refused	-5021
▁vogliamo	-5022
ens	-5023
▁gh	-5024
▁ear	-5025
▁bird	-5026
ggiato	-5027
▁bagno	-5028
▁uncle	-5029
▁chance	-5030
▁Someone	-5031
▁consiglio	-5032
▁flo	-5033
▁rema	-5034
isfied	-5035
▁Thanks	-5036
▁cinese	-5037
▁respect	-5038
▁supposed	-5039
345	-5040
ido	-5041
▁smell	-5042
▁venne	-5043
alsiasi	-5044
333	-5045
▁Ciò	-5046
ciamo	-5047
▁1170	-5048
▁2548	-5049
▁novel	-5050
▁kissed	-5051
▁informa	-5052
▁indietro	-5053
azz	-5054
▁527	-5055
▁599	-5056
▁bur	-5057
▁pur	-5058
light	-5059
▁prud	-5060
▁pranz	-5061
▁verso	-5062
▁studente	-5063
▁disappointed	-5064
outh	-5065
▁2543	-5066
▁smoke	-5067
▁salute	-5068
▁qualsiasi	-5069
ersi	-5070
▁636	-5071
▁832	-5072
vocato	-5073
▁conto	-5074
▁pensava	-5075
▁football	-5076
ism	-5077
rui	-5078
▁187	-5079
▁724	-5080
▁794	-5081
▁Put	-5082
▁doc	-5083
▁1162	-5084
▁2273	-5085
▁Bring	-5086
▁nelle	-5087
▁Nothing	-5088
ppa	-5089
▁For	-5090
▁Many	-5091
▁cars	-5092
▁banca	-5093
▁marry	-5094
▁company	-5095
▁Probabilmente	-5096
140	-5097
460	-5098
anze	-5099
ater	-5100
ties	-5101
ettete	-5102
▁credere	-5103
▁terribile	-5104
ats	-5105
▁passa	-5106
▁dovreste	-5107
▁smettere	-5108
▁list	-5109
▁Leave	-5110
▁stamattina	-5111
▁id	-5112
▁zio	-5113
▁Paris	-5114
▁horse	-5115
▁immag	-5116
▁pleas	-5117
▁eravamo	-5118
▁chiamata	-5119
▁professore	-5120
ab	-5121
▁Ma	-5122
anda	-5123
▁234	-5124
ressa	-5125
▁7476	-5126
▁Dovreste	-5127
arigi	-5128
phone	-5129
▁1111	-5130
▁2643	-5131
▁carta	-5132
▁large	-5133
▁Parigi	-5134
cce	-5135
▁448	-5136
▁guil	-5137
▁Italy	-5138
▁signi	-5139
▁ingann	-5140
▁stavano	-5141
gono	-5142
▁900	-5143
▁1093	-5144
▁card	-5145
▁smart	-5146
uazione	-5147
▁patient	-5148
▁stanotte	-5149
▁232	-5150
▁1108	-5151
▁London	-5152
▁vostre	-5153
▁portati	-5154
rab	-5155
▁owe	-5156
▁jail	-5157
▁check	-5158
▁torto	-5159
▁686	-5160
▁722	-5161
▁dol	-5162
▁7440	-5163
▁acqua	-5164
▁distr	-5165
▁store	-5166
▁americ	-5167
▁bicchiere	-5168
atem	-5169
▁447	-5170
▁Americ	-5171
▁assonn	-5172
omp	-5173
mbur	-5174
▁Ask	-5175
▁ext	-5176
happy	-5177
▁1164	-5178
▁bother	-5179
▁helping	-5180
▁arrested	-5181
▁addorment	-5182
iore	-5183
irsty	-5184
▁4202	-5185
▁plane	-5186
▁incredi	-5187
▁quattro	-5188
▁written	-5189
332	-5190
▁884	-5191
▁Mari	-5192
▁risk	-5193
▁nervoso	-5194
og	-5195
▁623	-5196
▁fan	-5197
▁2376	-5198
▁pick	-5199
▁scio	-5200
▁gatti	-5201
▁religi	-5202
327	-5203
▁547	-5204
▁779	-5205
▁paper	-5206
▁parli	-5207
▁Londra	-5208
▁bicicletta	-5209
330	-5210
irs	-5211
band	-5212
▁706	-5213
▁wash	-5214
cciamo	-5215
▁intro	-5216
132	-5217
ppi	-5218
▁Bi	-5219
▁515	-5220
▁2544	-5221
▁preparato	-5222
316	-5223
▁cow	-5224
▁2236	-5225
▁8480	-5226
▁morta	-5227
▁lavorato	-5228
qui	-5229
▁795	-5230
▁educ	-5231
▁suic	-5232
usband	-5233
ding	-5234
aited	-5235
▁Parla	-5236
▁lawyer	-5237
▁shopping	-5238
▁509	-5239
▁eri	-5240
icago	-5241
▁crying	-5242
▁Chicago	-5243
▁unhappy	-5244
▁attention	-5245
315	-5246
▁Pi	-5247
aster	-5248
fully	-5249
▁Pass	-5250
▁annoi	-5251
▁cattur	-5252
▁waited	-5253
▁weight	-5254
▁convinced	-5255
320	-5256
ava	-5257
▁119	-5258
▁992	-5259
▁neve	-5260
amento	-5261
▁sever	-5262
▁fantas	-5263
▁canadese	-5264
▁terrible	-5265
ghe	-5266
tico	-5267
▁377	-5268
▁507	-5269
▁agg	-5270
menti	-5271
▁2191	-5272
▁8521	-5273
▁easi	-5274
▁half	-5275
▁business	-5276
isci	-5277
tiva	-5278
▁380	-5279
▁518	-5280
▁Vai	-5281
arian	-5282
ppure	-5283
verso	-5284
▁Lind	-5285
ettato	-5286
▁Europe	-5287
▁grandi	-5288
▁promesso	-5289
▁Imp	-5290
▁sorr	-5291
▁alibi	-5292
▁forgi	-5293
▁chitar	-5294
▁emozion	-5295
136	-5296
▁605	-5297
▁Linda	-5298
▁fiero	-5299
▁punto	-5300
▁movies	-5301
▁Ric	-5302
▁7405	-5303
▁doub	-5304
▁Questi	-5305
▁nascos	-5306
tory	-5307
▁mele	-5308
▁peso	-5309
▁andrò	-5310
▁plays	-5311
▁sogno	-5312
▁ascoltare	-5313
▁scrivania	-5314
365	-5315
otta	-5316
▁379	-5317
▁881	-5318
▁len	-5319
▁2644	-5320
▁ambi	-5321
▁known	-5322
▁richi	-5323
▁marito	-5324
▁walking	-5325
rica	-5326
▁886	-5327
▁url	-5328
hanno	-5329
▁circa	-5330
▁tradu	-5331
▁thirsty	-5332
▁preferita	-5333
ants	-5334
reign	-5335
▁2547	-5336
▁2713	-5337
▁7391	-5338
▁diverse	-5339
▁entrambe	-5340
▁orologio	-5341
bbed	-5342
▁Tod	-5343
▁gun	-5344
ficio	-5345
▁brave	-5346
▁fanno	-5347
▁pisto	-5348
▁dizion	-5349
▁venendo	-5350
▁visitato	-5351
!"	-5352
alb	-5353
▁823	-5354
atelo	-5355
▁char	-5356
▁vera	-5357
icious	-5358
▁colpe	-5359
▁diction	-5360
146	-5361
160	-5362
328	-5363
▁Bu	-5364
▁425	-5365
▁fly	-5366
▁rul	-5367
▁2891	-5368
▁3821	-5369
▁Today	-5370
▁pubbl	-5371
▁sanno	-5372
▁rumore	-5373
▁Conosce	-5374
▁scacchi	-5375
...	-5376
aken	-5377
▁Hey	-5378
▁potuto	-5379
▁decisione	-5380
▁listening	-5381
▁orgoglioso	-5382
347	-5383
▁461	-5384
▁628	-5385
▁eats	-5386
▁socc	-5387
▁spor	-5388
▁artic	-5389
▁belong	-5390
▁ferito	-5391
▁singing	-5392
▁guardato	-5393
dom	-5394
rup	-5395
▁2451	-5396
▁cine	-5397
▁Stanno	-5398
▁guitar	-5399
▁actually	-5400
▁satisfied	-5401
ied	-5402
▁994	-5403
ctive	-5404
▁3919	-5405
▁7406	-5406
▁cats	-5407
▁comb	-5408
▁cura	-5409
▁dirò	-5410
▁borsa	-5411
▁taught	-5412
▁husband	-5413
148	-5414
erei	-5415
tail	-5416
▁863	-5417
▁901	-5418
▁fur	-5419
▁1138	-5420
▁senso	-5421
▁People	-5422
▁guilty	-5423
▁costrui	-5424
▁pensando	-5425
itto	-5426
▁138	-5427
▁2541	-5428
▁8526	-5429
▁mezza	-5430
▁Andate	-5431
▁alcune	-5432
▁capito	-5433
▁incolp	-5434
▁ridere	-5435
▁foreign	-5436
▁1001	-5437
▁fing	-5438
▁broken	-5439
▁hambur	-5440
▁showed	-5441
▁piacerà	-5442
▁vacation	-5443
369	-5444
▁195	-5445
▁946	-5446
▁973	-5447
▁post	-5448
▁salt	-5449
estate	-5450
▁credo	-5451
▁Dovrei	-5452
▁217	-5453
▁954	-5454
▁Dim	-5455
▁ecc	-5456
▁calm	-5457
▁gioca	-5458
uty	-5459
odka	-5460
▁185	-5461
▁ice	-5462
▁cross	-5463
▁sbagli	-5464
▁coraggi	-5465
▁piccola	-5466
▁diventato	-5467
▁fortunato	-5468
▁appreciate	-5469
ppe	-5470
▁Sia	-5471
▁whe	-5472
▁wake	-5473
▁fired	-5474
▁minute	-5475
▁semplicemente	-5476
rat	-5477
▁642	-5478
▁cand	-5479
▁capo	-5480
▁nato	-5481
▁aiuti	-5482
▁driver	-5483
▁sentir	-5484
▁ammesso	-5485
▁medicine	-5486
▁ju	-5487
road	-5488
tali	-5489
▁cour	-5490
▁vodka	-5491
▁cinema	-5492
▁report	-5493
▁concerto	-5494
▁recently	-5495
▁portatile	-5496
▁velocemente	-5497
137	-5498
able	-5499
▁cake	-5500
▁alcuna	-5501
▁Algeria	-5502
▁concert	-5503
▁tedesco	-5504
▁vacanza	-5505
▁utilizzare	-5506
▁155	-5507
▁568	-5508
▁3151	-5509
▁gioc	-5510
▁Queste	-5511
▁leggendo	-5512
▁ringrazi	-5513
129	-5514
360	-5515
ste	-5516
fica	-5517
▁349	-5518
▁cous	-5519
▁form	-5520
▁control	-5521
▁staying	-5522
▁consigli	-5523
▁180	-5524
▁359	-5525
▁395	-5526
▁2190	-5527
▁mezzo	-5528
▁negli	-5529
▁single	-5530
▁opinione	-5531
▁software	-5532
▁imparando	-5533
▁situazione	-5534
fa	-5535
▁371	-5536
▁estate	-5537
▁camminare	-5538
325	-5539
pagn	-5540
▁630	-5541
▁864	-5542
▁2646	-5543
▁Most	-5544
pected	-5545
▁chiuso	-5546
▁conten	-5547
▁decision	-5548
lt	-5549
▁Ai	-5550
dore	-5551
▁Acc	-5552
▁det	-5553
▁vede	-5554
ficato	-5555
▁alive	-5556
▁address	-5557
▁eravate	-5558
465	-5559
▁167	-5560
▁nuot	-5561
▁appun	-5562
▁tazza	-5563
ster	-5564
▁861	-5565
▁nem	-5566
▁sle	-5567
unica	-5568
▁8477	-5569
▁quit	-5570
▁fault	-5571
▁appartamento	-5572
usto	-5573
▁365	-5574
▁pal	-5575
▁fate	-5576
▁tocc	-5577
▁smesso	-5578
▁danzare	-5579
▁affamato	-5580
▁innocent	-5581
▁267	-5582
▁418	-5583
▁fai	-5584
▁gets	-5585
▁Voleva	-5586
▁fishing	-5587
469	-5588
▁Amm	-5589
▁lad	-5590
▁pig	-5591
▁val	-5592
▁1161	-5593
▁shop	-5594
▁39096	-5595
▁pasta	-5596
▁intend	-5597
▁months	-5598
▁voluto	-5599
▁calling	-5600
168	-5601
342	-5602
▁Rom	-5603
▁Porta	-5604
▁Jackson	-5605
▁mandato	-5606
▁ritorno	-5607
▁special	-5608
▁telling	-5609
▁aiutarmi	-5610
▁avvocato	-5611
word	-5612
▁558	-5613
▁ene	-5614
▁gia	-5615
▁Ogni	-5616
▁Rius	-5617
▁Show	-5618
▁front	-5619
▁rules	-5620
▁sposata	-5621
▁aiutarlo	-5622
▁sleeping	-5623
▁situation	-5624
gen	-5625
▁846	-5626
▁Ver	-5627
unico	-5628
▁1157	-5629
▁Torn	-5630
▁fiss	-5631
▁energ	-5632
▁visti	-5633
▁aiuterà	-5634
▁Dovremmo	-5635
▁surprise	-5636
▁130	-5637
▁538	-5638
▁736	-5639
▁737	-5640
▁1003	-5641
▁2648	-5642
▁luce	-5643
▁smile	-5644
▁sorri	-5645
irò	-5646
oken	-5647
▁385	-5648
▁435	-5649
▁619	-5650
▁782	-5651
▁Didn	-5652
▁arrivata	-5653
amma	-5654
▁659	-5655
▁893	-5656
▁2954	-5657
▁yell	-5658
▁Quali	-5659
▁dalle	-5660
len	-5661
▁389	-5662
▁503	-5663
▁2243	-5664
▁3183	-5665
▁Arab	-5666
▁Scri	-5667
▁sacco	-5668
▁regole	-5669
▁sometimes	-5670
key	-5671
terò	-5672
▁Ind	-5673
ggere	-5674
▁brutto	-5675
▁scelta	-5676
▁anziano	-5677
time	-5678
▁508	-5679
▁754	-5680
▁2706	-5681
▁4494	-5682
▁7383	-5683
▁giro	-5684
▁beach	-5685
▁detta	-5686
▁sette	-5687
▁organi	-5688
▁parano	-5689
▁accanto	-5690
▁complic	-5691
▁dancing	-5692
▁visitare	-5693
rig	-5694
▁874	-5695
▁Alc	-5696
▁inst	-5697
▁39033	-5698
▁scher	-5699
▁player	-5700
▁ragazze	-5701
▁stupida	-5702
▁success	-5703
▁ordinato	-5704
▁perfetto	-5705
università	-5706
167	-5707
▁497	-5708
▁695	-5709
▁Ved	-5710
▁guai	-5711
estero	-5712
▁washed	-5713
130	-5714
enty	-5715
▁1073	-5716
▁1177	-5717
▁2013.	-5718
▁dissi	-5719
▁verde	-5720
▁descri	-5721
▁correre	-5722
▁qualunque	-5723
149	-5724
▁512	-5725
▁629	-5726
▁1081	-5727
▁animali	-5728
▁aspetto	-5729
▁princip	-5730
▁several	-5731
▁watched	-5732
isa	-5733
▁2892	-5734
▁Stud	-5735
▁lazy	-5736
▁mesi	-5737
▁neppure	-5738
▁younger	-5739
▁tradurre	-5740
▁innamorato	-5741
▁775	-5742
▁abroad	-5743
▁future	-5744
▁obvious	-5745
▁abbandon	-5746
▁conoscere	-5747
▁hamburger	-5748
▁dictionary	-5749
▁spaventato	-5750
▁6531	-5751
▁furi	-5752
▁voice	-5753
▁suffici	-5754
▁returned	-5755
▁dizionario	-5756
▁Dica	-5757
▁bath	-5758
▁fres	-5759
▁join	-5760
▁passed	-5761
▁invitato	-5762
▁scordato	-5763
▁878	-5764
▁eng	-5765
▁fool	-5766
albero	-5767
▁accus	-5768
▁assun	-5769
▁colore	-5770
▁comprò	-5771
139	-5772
▁178	-5773
▁1006	-5774
▁grew	-5775
▁soccer	-5776
▁dormito	-5777
▁medicina	-5778
▁191	-5779
▁674	-5780
▁905	-5781
▁Sal	-5782
▁7400	-5783
▁orig	-5784
▁39186	-5785
▁ammal	-5786
▁chess	-5787
▁arrive	-5788
▁averlo	-5789
▁decide	-5790
▁during	-5791
▁experi	-5792
▁ubriaco	-5793
▁vederlo	-5794
▁dormendo	-5795
▁planning	-5796
▁spiaggia	-5797
▁fidanzata	-5798
▁incidente	-5799
ney	-5800
rown	-5801
terà	-5802
▁Ini	-5803
▁flu	-5804
▁3184	-5805
ggiata	-5806
▁Mangi	-5807
▁noise	-5808
▁women	-5809
▁futuro	-5810
▁chitarra	-5811
▁piaciuta	-5812
▁lentamente	-5813
rage	-5814
▁141	-5815
▁308	-5816
▁370	-5817
▁1002	-5818
▁choice	-5819
▁neighbor	-5820
▁rapporto	-5821
▁recognize	-5822
138	-5823
147	-5824
ull	-5825
ries	-5826
ussi	-5827
▁347	-5828
▁exci	-5829
▁firm	-5830
atrice	-5831
▁girls	-5832
▁pieno	-5833
▁waste	-5834
▁chiami	-5835
▁sicure	-5836
▁happens	-5837
▁perfetta	-5838
▁Sw	-5839
bergo	-5840
▁otten	-5841
▁prest	-5842
▁aggres	-5843
mina	-5844
▁mic	-5845
▁abbra	-5846
▁mente	-5847
▁lament	-5848
▁Eravamo	-5849
▁conoscer	-5850
▁giocando	-5851
rd	-5852
bit	-5853
eti	-5854
ung	-5855
▁popular	-5856
▁saranno	-5857
▁sé	-5858
▁615	-5859
▁abi	-5860
erano	-5861
resso	-5862
▁1028	-5863
▁7444	-5864
▁imag	-5865
▁text	-5866
▁belle	-5867
▁silen	-5868
edificio	-5869
▁telefon	-5870
▁560	-5871
▁road	-5872
▁compa	-5873
▁frust	-5874
▁influ	-5875
▁ricca	-5876
▁bianco	-5877
▁welcome	-5878
▁vorrebbe	-5879
▁infastidi	-5880
329	-5881
cal	-5882
oca	-5883
▁405	-5884
▁expl	-5885
▁gatta	-5886
▁matri	-5887
▁quiet	-5888
▁taken	-5889
▁apples	-5890
▁pronti	-5891
incidente	-5892
▁aspettato	-5893
aged	-5894
▁gar	-5895
▁ski	-5896
▁4504	-5897
▁7396	-5898
▁colp	-5899
▁data	-5900
▁tale	-5901
▁Those	-5902
▁least	-5903
▁estrem	-5904
▁hiding	-5905
▁password	-5906
vò	-5907
ille	-5908
mail	-5909
▁1887	-5910
▁reti	-5911
▁39144	-5912
▁chair	-5913
▁albero	-5914
▁assist	-5915
165	-5916
169	-5917
▁ty	-5918
▁664	-5919
ccasi	-5920
▁1191	-5921
▁darò	-5922
ession	-5923
▁Stava	-5924
▁blind	-5925
▁guess	-5926
▁viste	-5927
▁pioggia	-5928
▁volevano	-5929
▁Spa	-5930
▁ese	-5931
▁8527	-5932
arsene	-5933
▁10143	-5934
▁sense	-5935
into	-5936
▁2235	-5937
▁baby	-5938
▁liber	-5939
▁corona	-5940
▁notizia	-5941
▁notizie	-5942
▁running	-5943
▁risposto	-5944
way	-5945
▁Pa	-5946
▁756	-5947
▁jok	-5948
▁pul	-5949
atico	-5950
▁Ascol	-5951
▁possa	-5952
▁prese	-5953
▁potrei	-5954
▁pistola	-5955
▁sappiamo	-5956
▁interessata	-5957
▁informazioni	-5958
ew	-5959
ones	-5960
▁Pri	-5961
▁fal	-5962
ranno	-5963
▁7390	-5964
▁poco	-5965
▁spre	-5966
▁39093	-5967
▁color	-5968
▁parlo	-5969
▁frutta	-5970
▁parche	-5971
▁Italian	-5972
▁college	-5973
▁contrib	-5974
usso	-5975
▁Cai	-5976
▁hop	-5977
ughed	-5978
▁2951	-5979
▁prac	-5980
▁soci	-5981
▁fiera	-5982
ination	-5983
▁extrem	-5984
▁excited	-5985
▁laughed	-5986
▁protegger	-5987
▁pericoloso	-5988
▁estremamente	-5989
uale	-5990
▁Cap	-5991
▁Mar	-5992
anten	-5993
clock	-5994
porto	-5995
▁poes	-5996
▁denti	-5997
▁gamba	-5998
▁doveva	-5999
ggiungere	-6000
▁157	-6001
▁video	-6002
▁risult	-6003
▁temper	-6004
▁secondo	-6005
▁received	-6006
ower	-6007
▁289	-6008
▁455	-6009
▁843	-6010
ativo	-6011
▁2361	-6012
▁4498	-6013
▁8528	-6014
▁nave	-6015
▁39081	-6016
▁Andrò	-6017
▁Sapevo	-6018
▁partic	-6019
▁648	-6020
▁Har	-6021
estim	-6022
rizzo	-6023
▁mare	-6024
▁Cairo	-6025
▁Potrei	-6026
▁stesse	-6027
▁giovani	-6028
ambi	-6029
▁307	-6030
atela	-6031
▁1094	-6032
▁2549	-6033
▁sale	-6034
▁spagn	-6035
▁trent	-6036
▁common	-6037
▁infelice	-6038
▁ev	-6039
▁127	-6040
▁265	-6041
▁foss	-6042
▁Riesce	-6043
▁cheese	-6044
▁spoken	-6045
▁ticket	-6046
▁lettere	-6047
▁program	-6048
▁prem	-6049
▁matem	-6050
▁poter	-6051
▁biglietto	-6052
▁questione	-6053
▁160	-6054
▁889	-6055
▁cen	-6056
▁2545	-6057
▁2647	-6058
▁self	-6059
▁point	-6060
▁aperta	-6061
▁comune	-6062
▁cooking	-6063
▁dressed	-6064
▁extremely	-6065
▁170	-6066
▁393	-6067
▁697	-6068
cegli	-6069
▁2681	-6070
▁3154	-6071
▁Sembri	-6072
▁conver	-6073
▁identi	-6074
ps	-6075
gged	-6076
▁862	-6077
▁Vado	-6078
▁kitc	-6079
▁assol	-6080
▁kitchen	-6081
▁sitting	-6082
▁Potresti	-6083
▁pensione	-6084
▁raramente	-6085
▁completely	-6086
omb	-6087
▁175	-6088
▁4666	-6089
▁bill	-6090
▁burn	-6091
▁Dammi	-6092
▁hired	-6093
▁moved	-6094
▁geloso	-6095
▁venduto	-6096
▁683	-6097
▁788	-6098
▁Tan	-6099
▁1015	-6100
▁39053	-6101
▁capit	-6102
▁pover	-6103
▁batter	-6104
▁fretta	-6105
▁rilass	-6106
▁followed	-6107
▁viaggiare	-6108
▁fotografica	-6109
ait	-6110
ror	-6111
▁Ce	-6112
niti	-6113
ross	-6114
▁726	-6115
▁827	-6116
▁4503	-6117
▁8478	-6118
▁exce	-6119
▁manc	-6120
▁porti	-6121
▁relax	-6122
aco	-6123
ames	-6124
ches	-6125
omed	-6126
▁454	-6127
▁2986	-6128
▁3403	-6129
▁weak	-6130
▁awake	-6131
▁causa	-6132
▁credi	-6133
▁stuff	-6134
▁pensato	-6135
Wh	-6136
ings	-6137
▁Spe	-6138
▁cla	-6139
▁1053	-6140
▁2542	-6141
▁side	-6142
▁piena	-6143
▁slept	-6144
▁suona	-6145
▁discuss	-6146
▁letters	-6147
▁pescare	-6148
▁andarsene	-6149
dred	-6150
▁222	-6151
▁409	-6152
▁476	-6153
▁489	-6154
▁muo	-6155
▁ovv	-6156
▁yen	-6157
urder	-6158
▁Jane	-6159
▁joke	-6160
zionale	-6161
▁airport	-6162
▁contact	-6163
▁maggior	-6164
▁rispetto	-6165
▁attravers	-6166
▁passaggio	-6167
▁662	-6168
▁841	-6169
▁Ama	-6170
▁2552	-6171
▁3102	-6172
▁dest	-6173
▁bocca	-6174
▁diverso	-6175
▁ricordo	-6176
▁paziente	-6177
▁progetto	-6178
rog	-6179
tile	-6180
▁908	-6181
anish	-6182
gente	-6183
▁2193	-6184
▁2611	-6185
▁inse	-6186
▁muse	-6187
▁raff	-6188
▁priva	-6189
▁drinks	-6190
▁online	-6191
▁fermare	-6192
▁indossa	-6193
No	-6194
▁793	-6195
▁1155	-6196
▁5756	-6197
▁impa	-6198
▁cielo	-6199
▁peggio	-6200
▁confess	-6201
▁recente	-6202
▁innocente	-6203
▁orgogliosa	-6204
135	-6205
145	-6206
▁205	-6207
▁609	-6208
▁Ris	-6209
▁dev	-6210
▁2241	-6211
▁morì	-6212
▁sore	-6213
▁clear	-6214
▁Spanish	-6215
▁mentendo	-6216
ias	-6217
obe	-6218
pen	-6219
▁sì	-6220
▁732	-6221
▁poi	-6222
▁liti	-6223
▁Stati	-6224
▁Mangia	-6225
▁antici	-6226
▁walked	-6227
▁American	-6228
▁Vogliamo	-6229
▁partecip	-6230
▁colpevole	-6231
alle	-6232
zzare	-6233
▁2974	-6234
▁3133	-6235
▁date	-6236
▁moun	-6237
▁soup	-6238
▁villa	-6239
oker	-6240
teen	-6241
▁135	-6242
▁720	-6243
▁Both	-6244
▁boss	-6245
essere	-6246
▁worth	-6247
▁potato	-6248
▁public	-6249
of	-6250
mar	-6251
ordi	-6252
▁120	-6253
virus	-6254
▁Pres	-6255
▁ship	-6256
▁Arabic	-6257
▁fright	-6258
▁malata	-6259
▁trenta	-6260
erd	-6261
amica	-6262
▁past	-6263
▁mouth	-6264
▁famoso	-6265
▁univers	-6266
▁immediately	-6267
pend	-6268
▁517	-6269
▁Ten	-6270
▁3732	-6271
▁Well	-6272
▁appo	-6273
▁ille	-6274
▁line	-6275
▁spee	-6276
▁22034	-6277
▁39044	-6278
▁somewhere	-6279
gò	-6280
▁Ni	-6281
▁os	-6282
▁505	-6283
▁896	-6284
▁glo	-6285
▁str	-6286
▁inves	-6287
▁venti	-6288
▁murder	-6289
▁allowed	-6290
▁bambina	-6291
▁822	-6292
inata	-6293
▁Vive	-6294
▁norm	-6295
▁guida	-6296
▁poker	-6297
▁twice	-6298
▁lasciò	-6299
▁vicina	-6300
▁nessuna	-6301
▁matematica	-6302
▁nascondendo	-6303
inf	-6304
▁215	-6305
▁399	-6306
▁1166	-6307
▁vinc	-6308
umento	-6309
▁Chied	-6310
▁betra	-6311
▁Quindi	-6312
▁result	-6313
▁threat	-6314
▁hundred	-6315
▁los	-6316
▁7385	-6317
▁Legg	-6318
▁jazz	-6319
▁posi	-6320
▁term	-6321
▁amava	-6322
▁favor	-6323
▁newsp	-6324
▁using	-6325
▁veget	-6326
▁assomi	-6327
▁slowly	-6328
▁davanti	-6329
▁driving	-6330
▁project	-6331
▁funziona	-6332
▁712	-6333
▁mid	-6334
zioso	-6335
ettila	-6336
perate	-6337
▁along	-6338
▁ripos	-6339
▁teeth	-6340
▁benven	-6341
▁morosa	-6342
▁avverti	-6343
▁lezione	-6344
▁ricorda	-6345
▁risolvere	-6346
▁preoccupate	-6347
▁249	-6348
▁346	-6349
▁733	-6350
▁6536	-6351
▁7392	-6352
▁7398	-6353
▁built	-6354
▁frequ	-6355
▁detail	-6356
▁animals	-6357
uoco	-6358
▁costa	-6359
▁mamma	-6360
▁fidare	-6361
eroporto	-6362
▁baciato	-6363
▁arrivare	-6364
▁riparare	-6365
▁impressed	-6366
▁Tr	-6367
▁cug	-6368
▁1182	-6369
▁2044	-6370
▁Vada	-6371
▁floor	-6372
▁survi	-6373
▁pronte	-6374
utamente	-6375
▁impossible	-6376
▁embarrassed	-6377
cu	-6378
aps	-6379
cite	-6380
▁410	-6381
▁536	-6382
▁pap	-6383
▁2272	-6384
▁2851	-6385
▁Comp	-6386
▁cult	-6387
▁earth	-6388
▁libera	-6389
▁piatti	-6390
▁seduto	-6391
perienza	-6392
▁materia	-6393
▁responsa	-6394
▁insegnato	-6395
▁televisione	-6396
set	-6397
assa	-6398
orri	-6399
▁nero	-6400
▁corso	-6401
▁fratelli	-6402
▁depressed	-6403
bby	-6404
tice	-6405
▁551	-6406
▁1069	-6407
▁2254	-6408
▁Bill	-6409
▁dello	-6410
▁Datemi	-6411
▁denied	-6412
▁sorriso	-6413
▁support	-6414
▁succedendo	-6415
▁controllare	-6416
▁849	-6417
▁867	-6418
▁Isn	-6419
▁Jim	-6420
▁cod	-6421
▁giù	-6422
▁2642	-6423
▁2645	-6424
▁28356	-6425
▁39190	-6426
▁Avevo	-6427
▁Credo	-6428
▁Canada	-6429
▁doccia	-6430
▁sports	-6431
▁accepted	-6432
sh	-6433
oned	-6434
vato	-6435
▁698	-6436
▁967	-6437
▁Ent	-6438
▁Turn	-6439
▁agli	-6440
▁bugi	-6441
▁stri	-6442
▁11874	-6443
▁22182	-6444
▁irrit	-6445
▁lunga	-6446
▁socia	-6447
▁onesto	-6448
▁andiamo	-6449
▁finally	-6450
▁anywhere	-6451
▁carefully	-6452
aked	-6453
▁cie	-6454
▁4203	-6455
cciato	-6456
▁Guarda	-6457
▁gruppo	-6458
▁scream	-6459
▁concent	-6460
▁forgive	-6461
▁raining	-6462
temp	-6463
▁179	-6464
omani	-6465
▁2276	-6466
▁2823	-6467
▁9072	-6468
▁mili	-6469
▁viss	-6470
▁vote	-6471
▁11721	-6472
▁doubt	-6473
▁human	-6474
▁Italia	-6475
▁bridge	-6476
▁trascorso	-6477
▁coronavirus	-6478
gel	-6479
lled	-6480
▁136	-6481
▁259	-6482
▁678	-6483
▁ara	-6484
olato	-6485
tagna	-6486
▁1163	-6487
▁5283	-6488
▁7382	-6489
▁paio	-6490
▁shut	-6491
stairs	-6492
▁39072	-6493
▁dolore	-6494
▁Conosco	-6495
▁vendere	-6496
▁510	-6497
▁685	-6498
▁2554	-6499
▁vali	-6500
▁manten	-6501
▁scelto	-6502
▁raggiun	-6503
▁explained	-6504
▁happening	-6505
ls	-6506
duce	-6507
▁Tra	-6508
▁hol	-6509
▁sky	-6510
monio	-6511
▁4204	-6512
▁dirà	-6513
▁wood	-6514
▁49801	-6515
▁China	-6516
▁begin	-6517
▁takes	-6518
▁smetta	-6519
▁competi	-6520
▁rimasto	-6521
ade	-6522
men	-6523
▁148	-6524
▁309	-6525
▁vuo	-6526
▁1071	-6527
▁5753	-6528
▁mise	-6529
▁group	-6530
▁itali	-6531
▁worse	-6532
▁brutta	-6533
▁costoso	-6534
▁silenzio	-6535
my	-6536
▁169	-6537
▁460	-6538
▁679	-6539
olute	-6540
table	-6541
▁2584	-6542
▁Only	-6543
▁39076	-6544
▁blood	-6545
▁moder	-6546
▁solve	-6547
▁carina	-6548
▁devono	-6549
▁osserv	-6550
▁speech	-6551
▁Twitter	-6552
▁passare	-6553
ala	-6554
inò	-6555
unt	-6556
voli	-6557
▁esa	-6558
▁1010	-6559
▁Cina	-6560
▁caus	-6561
▁fill	-6562
▁meri	-6563
▁Vieni	-6564
▁seven	-6565
bor	-6566
orti	-6567
tura	-6568
▁Ben	-6569
▁wed	-6570
▁body	-6571
▁fede	-6572
▁10151	-6573
▁pessim	-6574
▁annoyed	-6575
▁pictures	-6576
▁insegnare	-6577
emp	-6578
▁542	-6579
▁784	-6580
▁982	-6581
▁ado	-6582
titui	-6583
▁1160	-6584
▁Read	-6585
▁mina	-6586
mother	-6587
▁39183	-6588
▁prove	-6589
▁pianto	-6590
▁singer	-6591
▁wedding	-6592
▁aiutarci	-6593
▁brothers	-6594
▁laughing	-6595
▁somebody	-6596
▁formaggio	-6597
▁219	-6598
▁458	-6599
▁2953	-6600
▁8531	-6601
▁Rome	-6602
▁deep	-6603
▁dici	-6604
▁quar	-6605
▁shar	-6606
▁capitato	-6607
▁giornale	-6608
▁pericolo	-6609
▁spagnolo	-6610
ies	-6611
arda	-6612
ondo	-6613
▁Fai	-6614
▁set	-6615
▁band	-6616
▁coll	-6617
▁fore	-6618
▁feste	-6619
▁fuoco	-6620
▁course	-6621
▁Sembrate	-6622
▁cantante	-6623
▁feelings	-6624
▁painting	-6625
arch	-6626
cono	-6627
pose	-6628
void	-6629
▁748	-6630
▁dif	-6631
▁idi	-6632
▁2244	-6633
▁vidi	-6634
▁warm	-6635
▁disco	-6636
▁dirgli	-6637
▁shower	-6638
▁vivono	-6639
▁sveglia	-6640
▁annoying	-6641
ange	-6642
▁368	-6643
▁obi	-6644
▁coat	-6645
ational	-6646
▁alcuni	-6647
▁avesse	-6648
▁vissuto	-6649
▁wonderful	-6650
bul	-6651
chio	-6652
erla	-6653
rata	-6654
▁402	-6655
▁746	-6656
▁844	-6657
▁923	-6658
▁944	-6659
▁Beh	-6660
▁Ber	-6661
▁bru	-6662
▁1180	-6663
▁2872	-6664
▁8691	-6665
▁8694	-6666
▁land	-6667
▁nata	-6668
azione	-6669
▁amore	-6670
▁ponte	-6671
▁sente	-6672
▁mettere	-6673
▁migliori	-6674
▁popolare	-6675
▁riusciamo	-6676
▁innamorata	-6677
leb	-6678
saka	-6679
▁129	-6680
▁sea	-6681
▁vai	-6682
ments	-6683
▁1885	-6684
etterà	-6685
▁Avrei	-6686
▁buone	-6687
▁affari	-6688
▁finché	-6689
▁native	-6690
▁regret	-6691
▁handsome	-6692
▁pubblico	-6693
▁Ro	-6694
viamo	-6695
▁1096	-6696
▁Arri	-6697
▁Ieri	-6698
▁poem	-6699
▁quali	-6700
▁boring	-6701
▁mangio	-6702
▁scherz	-6703
▁deserve	-6704
▁privacy	-6705
▁aiutarli	-6706
▁incontra	-6707
▁matrimonio	-6708
▁Eri	-6709
▁vot	-6710
forte	-6711
vento	-6712
▁2822	-6713
▁3171	-6714
▁7741	-6715
▁Wait	-6716
▁dying	-6717
▁means	-6718
▁share	-6719
▁terra	-6720
▁cominc	-6721
▁orario	-6722
▁vecchi	-6723
▁Preferi	-6724
▁account	-6725
▁impossibile	-6726
▁professoressa	-6727
idio	-6728
▁904	-6729
▁966	-6730
▁Dav	-6731
▁cio	-6732
epoca	-6733
sible	-6734
▁1128	-6735
▁1178	-6736
▁nove	-6737
▁cried	-6738
▁esemp	-6739
▁ideas	-6740
▁separ	-6741
▁aprire	-6742
dic	-6743
ager	-6744
▁339	-6745
▁3822	-6746
▁7394	-6747
▁serv	-6748
▁stup	-6749
▁Osaka	-6750
▁named	-6751
▁alzato	-6752
▁banana	-6753
▁commit	-6754
▁superi	-6755
▁answered	-6756
▁necessary	-6757
▁um	-6758
▁438	-6759
▁850	-6760
zzata	-6761
▁2873	-6762
▁2952	-6763
▁3131	-6764
▁3738	-6765
▁disg	-6766
▁39143	-6767
▁rovin	-6768
▁contra	-6769
▁polizi	-6770
▁sangue	-6771
▁subito	-6772
▁Lasciate	-6773
▁2641	-6774
▁Odia	-6775
▁coin	-6776
▁39182	-6777
▁exper	-6778
▁sugger	-6779
ccasione	-6780
ettetela	-6781
▁whether	-6782
▁continuato	-6783
▁experience	-6784
pol	-6785
bita	-6786
vard	-6787
▁330	-6788
▁519	-6789
▁806	-6790
▁hom	-6791
▁1012	-6792
▁3121	-6793
▁4496	-6794
▁8011	-6795
▁Fate	-6796
▁kids	-6797
▁roba	-6798
▁11740	-6799
▁Riesci	-6800
▁easily	-6801
▁invite	-6802
▁telephone	-6803
▁sicuramente	-6804
astica	-6805
▁Russi	-6806
▁farei	-6807
▁afford	-6808
▁debole	-6809
▁nostre	-6810
▁confuso	-6811
▁Smettila	-6812
▁aiutarle	-6813
▁Something	-6814
cts	-6815
▁147	-6816
▁150	-6817
▁lit	-6818
ushed	-6819
▁3736	-6820
▁susp	-6821
▁39152	-6822
▁39156	-6823
▁39192	-6824
▁upset	-6825
▁asking	-6826
▁timido	-6827
pie	-6828
gioni	-6829
risse	-6830
▁5284	-6831
▁Even	-6832
▁idio	-6833
▁rese	-6834
▁sali	-6835
▁allora	-6836
▁dimost	-6837
▁figlie	-6838
▁simple	-6839
▁fossero	-6840
▁stanchi	-6841
▁riuscito	-6842
▁speranza	-6843
▁sentimenti	-6844
head	-6845
▁lan	-6846
▁1054	-6847
▁1895	-6848
▁3511	-6849
▁acqu	-6850
▁clos	-6851
▁gamb	-6852
▁lots	-6853
▁22183	-6854
▁Molti	-6855
▁accom	-6856
▁atten	-6857
▁trees	-6858
▁venga	-6859
▁Prefer	-6860
▁attend	-6861
▁butter	-6862
▁servono	-6863
▁fotografia	-6864
▁nascondere	-6865
colo	-6866
isca	-6867
▁427	-6868
rendi	-6869
stood	-6870
ounded	-6871
▁22552	-6872
▁celeb	-6873
▁fiore	-6874
▁shoot	-6875
▁choose	-6876
▁sfortun	-6877
▁absolute	-6878
▁cappotto	-6879
▁fidanzato	-6880
▁ga	-6881
arai	-6882
ichi	-6883
▁877	-6884
▁903	-6885
verno	-6886
▁1954	-6887
▁4984	-6888
▁note	-6889
▁segu	-6890
etterò	-6891
inning	-6892
▁assic	-6893
▁buoni	-6894
▁empty	-6895
▁destro	-6896
▁mangiò	-6897
▁winter	-6898
isamente	-6899
▁anticipo	-6900
▁teaching	-6901
▁uccidere	-6902
▁impegnati	-6903
▁probabile	-6904
af	-6905
ah	-6906
▁Exc	-6907
▁2406	-6908
▁grat	-6909
▁tota	-6910
▁idiot	-6911
▁testo	-6912
▁arriva	-6913
▁chiusa	-6914
▁fortuna	-6915
▁romanzo	-6916
imp	-6917
▁Co	-6918
▁360	-6919
▁870	-6920
▁sex	-6921
▁1005	-6922
ortare	-6923
▁22031	-6924
▁39141	-6925
▁corpo	-6926
▁speci	-6927
▁giusta	-6928
▁stolen	-6929
▁Russian	-6930
▁trovarla	-6931
▁finalmente	-6932
mili	-6933
▁833	-6934
▁luo	-6935
▁1025	-6936
▁2773	-6937
▁7494	-6938
▁8542	-6939
▁cute	-6940
▁farm	-6941
▁sogn	-6942
▁22033	-6943
▁39064	-6944
▁eight	-6945
▁fores	-6946
▁nello	-6947
▁scapp	-6948
▁vanno	-6949
▁positi	-6950
▁sembri	-6951
▁abituato	-6952
▁sembrano	-6953
▁Im	-6954
itta	-6955
eravi	-6956
▁2551	-6957
▁39094	-6958
▁maggio	-6959
▁pulire	-6960
▁richiam	-6961
▁iniziare	-6962
▁ospedale	-6963
coli	-6964
▁177	-6965
▁650	-6966
▁911	-6967
▁Col	-6968
▁dam	-6969
▁sui	-6970
▁tru	-6971
▁2360	-6972
▁3636	-6973
▁exha	-6974
▁idee	-6975
▁inde	-6976
▁prod	-6977
▁woke	-6978
▁nonna	-6979
▁ridic	-6980
▁discre	-6981
▁fastidi	-6982
▁trovata	-6983
▁occupati	-6984
▁sentivano	-6985
aff	-6986
erc	-6987
▁319	-6988
▁548	-6989
▁926	-6990
isero	-6991
▁norma	-6992
▁rived	-6993
▁sushi	-6994
▁Listen	-6995
▁annull	-6996
▁corret	-6997
▁trascor	-6998
▁discorso	-6999
▁rifiutato	-7000
eva	-7001
zing	-7002
▁875	-7003
▁ami	-7004
▁Sapp	-7005
▁Immag	-7006
▁Never	-7007
▁shirt	-7008
▁sulle	-7009
▁sappia	-7010
▁studio	-7011
▁morendo	-7012
▁teachers	-7013
▁frightened	-7014
ines	-7015
aches	-7016
▁1036	-7017
▁6439	-7018
▁Maria	-7019
▁Write	-7020
▁avvis	-7021
▁holid	-7022
▁persu	-7023
▁Excuse	-7024
▁Harvard	-7025
▁believed	-7026
▁709	-7027
ascin	-7028
ology	-7029
▁1056	-7030
▁1961	-7031
▁6210	-7032
▁boys	-7033
▁file	-7034
▁decor	-7035
▁trovò	-7036
▁Faccia	-7037
▁history	-7038
▁raccont	-7039
▁arrabbiati	-7040
▁continuare	-7041
ash	-7042
com	-7043
atte	-7044
derò	-7045
▁412	-7046
▁540	-7047
▁646	-7048
▁751	-7049
▁2271	-7050
▁2540	-7051
▁Send	-7052
▁repe	-7053
▁ottim	-7054
▁rotta	-7055
▁sounds	-7056
▁Potreste	-7057
▁sy	-7058
▁562	-7059
▁770	-7060
▁825	-7061
▁Eat	-7062
tingu	-7063
▁3343	-7064
▁Fece	-7065
▁buio	-7066
▁lend	-7067
▁rare	-7068
▁39106	-7069
▁optim	-7070
▁palla	-7071
▁normal	-7072
▁convinto	-7073
eter	-7074
form	-7075
ller	-7076
▁539	-7077
▁Suo	-7078
▁5292	-7079
▁deal	-7080
▁39091	-7081
▁green	-7082
▁nuove	-7083
▁dishes	-7084
▁govern	-7085
▁iniziò	-7086
▁chieder	-7087
▁trovarlo	-7088
▁conoscete	-7089
cra	-7090
ove	-7091
▁462	-7092
▁796	-7093
▁rom	-7094
▁1021	-7095
▁1951	-7096
▁4890	-7097
▁hang	-7098
▁memb	-7099
ultimo	-7100
▁39082	-7101
▁disag	-7102
▁stori	-7103
▁weird	-7104
artiene	-7105
▁entered	-7106
▁speciale	-7107
▁divertendo	-7108
▁passeggiata	-7109
prì	-7110
umor	-7111
▁707	-7112
▁Sat	-7113
▁rem	-7114
icato	-7115
▁1183	-7116
▁2582	-7117
▁3354	-7118
▁Apri	-7119
▁Berl	-7120
ustria	-7121
▁11722	-7122
▁tagli	-7123
▁consid	-7124
▁couple	-7125
▁disper	-7126
▁meravi	-7127
▁spazio	-7128
▁sembrare	-7129
ety	-7130
zell	-7131
▁ego	-7132
▁usc	-7133
▁3824	-7134
▁6351	-7135
▁Semp	-7136
▁39153	-7137
▁dirty	-7138
▁enter	-7139
abbiamo	-7140
▁cambia	-7141
▁centro	-7142
▁market	-7143
▁barzell	-7144
Al	-7145
▁Nu	-7146
amal	-7147
▁719	-7148
▁Ass	-7149
▁riv	-7150
nited	-7151
▁4495	-7152
▁nonno	-7153
▁sedia	-7154
▁alberi	-7155
▁advised	-7156
▁healthy	-7157
▁allergic	-7158
▁listened	-7159
▁punished	-7160
▁television	-7161
▁possibilità	-7162
acan	-7163
▁ske	-7164
ately	-7165
ulare	-7166
▁2663	-7167
▁2942	-7168
▁3506	-7169
▁7393	-7170
▁8713	-7171
▁admi	-7172
▁22030	-7173
▁39151	-7174
▁finita	-7175
▁rischi	-7176
▁capisce	-7177
▁nascosto	-7178
▁opportun	-7179
▁Smettetela	-7180
ji	-7181
▁Sor	-7182
▁1123	-7183
▁1127	-7184
▁1175	-7185
▁1671	-7186
▁Roma	-7187
▁fact	-7188
▁10696	-7189
▁11461	-7190
▁11544	-7191
▁Jamal	-7192
▁conne	-7193
▁tranne	-7194
▁Immagino	-7195
▁Riuscite	-7196
▁affamata	-7197
▁montagna	-7198
▁scherzando	-7199
▁assolutamente	-7200
hood	-7201
ogle	-7202
▁400	-7203
▁749	-7204
▁757	-7205
▁gas	-7206
icare	-7207
tific	-7208
▁1114	-7209
▁2556	-7210
▁3181	-7211
▁4983	-7212
▁7408	-7213
▁desi	-7214
▁otti	-7215
▁rock	-7216
ettivo	-7217
▁dirle	-7218
▁pazzo	-7219
▁reach	-7220
▁either	-7221
▁failed	-7222
▁patate	-7223
▁poison	-7224
▁Continu	-7225
▁diversi	-7226
▁succede	-7227
▁vacanze	-7228
aeroporto	-7229
▁prudente	-7230
avy	-7231
gent	-7232
orge	-7233
▁406	-7234
▁675	-7235
▁evi	-7236
cherà	-7237
eless	-7238
▁1027	-7239
▁3312	-7240
▁3826	-7241
▁3921	-7242
▁6438	-7243
▁Prom	-7244
▁remo	-7245
▁fatti	-7246
▁notic	-7247
▁potevo	-7248
atamente	-7249
orme	-7250
▁882	-7251
▁883	-7252
▁1841	-7253
▁2358	-7254
▁6444	-7255
▁8731	-7256
▁Life	-7257
▁avrà	-7258
▁fond	-7259
▁vers	-7260
▁39071	-7261
▁basso	-7262
▁dirmi	-7263
reddore	-7264
▁Venite	-7265
▁uccise	-7266
acanestro	-7267
▁document	-7268
▁forgotten	-7269
▁pianoforte	-7270
▁raffreddore	-7271
▁pallacanestro	-7272
▁'	-7273
ises	-7274
reed	-7275
▁727	-7276
▁787	-7277
▁834	-7278
▁Bob	-7279
▁obs	-7280
udere	-7281
ussia	-7282
▁1104	-7283
▁2941	-7284
▁4501	-7285
▁6898	-7286
▁7387	-7287
▁duro	-7288
▁sete	-7289
father	-7290
▁21113	-7291
▁given	-7292
▁piaccia	-7293
▁sparato	-7294
▁contatto	-7295
▁dimentic	-7296
▁indossare	-7297
▁cu	-7298
bles	-7299
▁902	-7300
argli	-7301
rated	-7302
▁1072	-7303
▁4887	-7304
▁rent	-7305
inando	-7306
▁39124	-7307
▁invol	-7308
▁piane	-7309
▁steal	-7310
sazione	-7311
▁Google	-7312
▁flower	-7313
▁pagina	-7314
▁scetti	-7315
inna	-7316
▁bell	-7317
▁metà	-7318
▁stom	-7319
▁39181	-7320
▁camic	-7321
▁power	-7322
▁village	-7323
▁comporta	-7324
▁dettagli	-7325
▁arrestato	-7326
▁Po	-7327
onna	-7328
uali	-7329
erale	-7330
▁2703	-7331
▁5994	-7332
▁imam	-7333
entire	-7334
▁saved	-7335
▁across	-7336
▁aiutata	-7337
▁sentendo	-7338
▁settimane	-7339
▁preoccupati	-7340
▁dà	-7341
bato	-7342
onde	-7343
▁142	-7344
▁608	-7345
▁cro	-7346
▁1158	-7347
▁2704	-7348
▁6276	-7349
▁7389	-7350
▁Date	-7351
▁hold	-7352
▁quei	-7353
▁39086	-7354
▁weeks	-7355
▁Taninna	-7356
▁suspect	-7357
▁scoperto	-7358
▁servizio	-7359
▁villaggio	-7360
▁differenza	-7361
zen	-7362
arte	-7363
▁432	-7364
urato	-7365
▁3172	-7366
▁pian	-7367
▁wind	-7368
▁18956	-7369
▁39043	-7370
▁spieg	-7371
▁deluso	-7372
▁discut	-7373
▁medico	-7374
▁recomm	-7375
▁smiled	-7376
▁sposati	-7377
▁passport	-7378
▁necessario	-7379
▁Cl	-7380
ucia	-7381
▁Sua	-7382
incia	-7383
▁1092	-7384
▁Andò	-7385
▁skep	-7386
▁tend	-7387
▁39041	-7388
▁After	-7389
▁aereo	-7390
▁farmi	-7391
▁piece	-7392
▁intern	-7393
▁passap	-7394
▁saremo	-7395
▁volere	-7396
▁farebbe	-7397
▁lezioni	-7398
▁vengono	-7399
▁spiegare	-7400
▁beginning	-7401
▁licenziato	-7402
▁ps	-7403
▁417	-7404
▁660	-7405
▁723	-7406
▁map	-7407
▁wet	-7408
▁2723	-7409
▁2856	-7410
▁2956	-7411
▁6901	-7412
▁guys	-7413
▁39101	-7414
▁fianco	-7415
▁Guardate	-7416
▁trasferi	-7417
▁ascoltando	-7418
What	-7419
▁22474	-7420
▁22554	-7421
▁rende	-7422
▁gelosa	-7423
▁studia	-7424
▁albergo	-7425
az	-7426
cto	-7427
dita	-7428
▁687	-7429
▁dem	-7430
▁1890	-7431
▁2742	-7432
▁7388	-7433
▁8479	-7434
▁fida	-7435
▁ghost	-7436
▁threw	-7437
▁tizio	-7438
▁usato	-7439
▁disapp	-7440
▁noticed	-7441
▁parlate	-7442
▁sorprend	-7443
▁cresciuto	-7444
▁appartiene	-7445
ache	-7446
ashi	-7447
sign	-7448
ancia	-7449
cente	-7450
▁2012	-7451
▁2701	-7452
▁6930	-7453
▁scom	-7454
▁58286	-7455
▁aiuta	-7456
▁talks	-7457
▁trova	-7458
▁vengo	-7459
▁faster	-7460
▁abandon	-7461
▁distingu	-7462
▁university	-7463
▁403	-7464
▁995	-7465
allen	-7466
▁bagn	-7467
▁22184	-7468
▁39056	-7469
▁spiega	-7470
▁cattivo	-7471
▁Vorrebbe	-7472
▁sarebbero	-7473
▁spaventata	-7474
umi	-7475
▁Fi	-7476
▁839	-7477
▁bev	-7478
▁3101	-7479
▁8010	-7480
▁Leon	-7481
▁bike	-7482
▁dess	-7483
▁seat	-7484
colate	-7485
▁cream	-7486
▁fixed	-7487
▁leader	-7488
▁facciamo	-7489
▁esperanto	-7490
els	-7491
onda	-7492
▁955	-7493
zzate	-7494
▁1022	-7495
▁1996	-7496
▁2553	-7497
▁5166	-7498
▁5985	-7499
▁7475	-7500
▁7737	-7501
▁beha	-7502
▁pace	-7503
giorno	-7504
▁David	-7505
▁carte	-7506
▁scrit	-7507
▁truck	-7508
▁Welcome	-7509
▁riuscivo	-7510
▁concerned	-7511
▁fortunata	-7512
▁skeptical	-7513
rand	-7514
▁327	-7515
▁467	-7516
▁470	-7517
▁717	-7518
▁835	-7519
▁Emi	-7520
▁ded	-7521
▁tie	-7522
▁1137	-7523
▁2562	-7524
▁3264	-7525
▁3818	-7526
▁Temo	-7527
▁duty	-7528
▁fair	-7529
▁reac	-7530
▁10451	-7531
▁39078	-7532
▁39184	-7533
▁motiv	-7534
▁ricer	-7535
▁stamp	-7536
▁Prendi	-7537
▁comport	-7538
▁aiutarti	-7539
▁disposto	-7540
▁meravigli	-7541
▁seriously	-7542
▁succederà	-7543
▁absolutely	-7544
▁grandmother	-7545
",	-7546
nic	-7547
onia	-7548
stan	-7549
▁1167	-7550
▁2006	-7551
▁6357	-7552
▁8513	-7553
ission	-7554
▁39052	-7555
▁39194	-7556
▁Dissi	-7557
▁chose	-7558
▁Guardi	-7559
▁aggiun	-7560
▁superiori	-7561
den	-7562
▁Ge	-7563
etch	-7564
▁1124	-7565
▁1136	-7566
▁1190	-7567
▁1543	-7568
▁5709	-7569
▁6571	-7570
▁Dopo	-7571
▁Make	-7572
▁Mike	-7573
▁Octo	-7574
grafia	-7575
▁siste	-7576
▁vergo	-7577
▁Russia	-7578
▁arrabb	-7579
▁grasso	-7580
▁ignore	-7581
▁lascia	-7582
▁planet	-7583
▁poesia	-7584
▁viaggi	-7585
▁Eravate	-7586
▁offered	-7587
▁sorelle	-7588
▁traffic	-7589
▁Vorresti	-7590
▁indirizzo	-7591
▁insegnanti	-7592
cio	-7593
▁Br	-7594
gers	-7595
▁647	-7596
▁unl	-7597
icked	-7598
▁1893	-7599
▁3023	-7600
▁4243	-7601
▁copy	-7602
▁link	-7603
▁matt	-7604
▁39090	-7605
▁luogo	-7606
▁Compra	-7607
▁cancel	-7608
▁quelli	-7609
▁tranqu	-7610
▁October	-7611
▁desider	-7612
▁dessert	-7613
licemente	-7614
▁Semplicemente	-7615
its	-7616
pore	-7617
▁700	-7618
▁ine	-7619
▁lon	-7620
cento	-7621
▁1013	-7622
▁1020	-7623
▁Tran	-7624
▁sito	-7625
▁tent	-7626
▁hobby	-7627
▁morti	-7628
▁absent	-7629
▁lavato	-7630
▁prezzi	-7631
▁taller	-7632
▁tenere	-7633
▁castello	-7634
▁riuscite	-7635
wa	-7636
atch	-7637
▁637	-7638
▁918	-7639
▁Mus	-7640
olata	-7641
perta	-7642
▁7397	-7643
▁8502	-7644
▁Chia	-7645
▁camp	-7646
▁cerc	-7647
▁39073	-7648
▁39154	-7649
▁avoid	-7650
▁attack	-7651
▁defini	-7652
▁strana	-7653
▁Sarebbe	-7654
▁Somebody	-7655
▁difference	-7656
vvi	-7657
dden	-7658
haps	-7659
▁329	-7660
▁499	-7661
▁919	-7662
▁Ehi	-7663
▁coo	-7664
▁2565	-7665
▁5784	-7666
▁7399	-7667
▁cham	-7668
▁huge	-7669
▁39111	-7670
▁amano	-7671
▁assum	-7672
▁chick	-7673
▁exist	-7674
▁spazz	-7675
▁raised	-7676
▁abbiate	-7677
▁ignored	-7678
▁pianeta	-7679
▁sembrate	-7680
▁attraverso	-7681
ciò	-7682
pre	-7683
,000	-7684
ciug	-7685
osco	-7686
▁128	-7687
▁767	-7688
▁Vivo	-7689
▁inve	-7690
▁heavy	-7691
▁Domani	-7692
▁guarda	-7693
▁ascolta	-7694
▁bevendo	-7695
▁unlucky	-7696
▁cominciò	-7697
▁sospetto	-7698
▁suonando	-7699
▁sbagliata	-7700
cr	-7701
ges	-7702
oko	-7703
oltà	-7704
▁688	-7705
▁Any	-7706
▁ash	-7707
▁inj	-7708
cherò	-7709
▁1179	-7710
▁2396	-7711
▁2844	-7712
▁3103	-7713
▁Gree	-7714
▁king	-7715
lingua	-7716
▁22433	-7717
▁breve	-7718
▁piant	-7719
▁memori	-7720
▁camicia	-7721
▁mercato	-7722
▁partito	-7723
▁sentita	-7724
▁trasfer	-7725
▁potatoes	-7726
▁soluzione	-7727
▁understood	-7728
derà	-7729
▁725	-7730
▁bal	-7731
▁eye	-7732
▁rap	-7733
▁rin	-7734
▁tir	-7735
▁3838	-7736
▁8086	-7737
▁mach	-7738
▁11121	-7739
▁11712	-7740
▁lista	-7741
▁posta	-7742
▁throw	-7743
▁States	-7744
▁castle	-7745
▁salvare	-7746
▁continue	-7747
▁decidere	-7748
▁cominciare	-7749
wers	-7750
▁2455	-7751
▁4011	-7752
▁5352	-7753
▁6702	-7754
▁nose	-7755
▁page	-7756
▁sopp	-7757
iscono	-7758
▁39104	-7759
▁drove	-7760
▁avanti	-7761
▁leaves	-7762
▁uscito	-7763
▁tornata	-7764
▁canadesi	-7765
▁interrup	-7766
▁promessa	-7767
▁arrabbiate	-7768
▁optimistic	-7769
ki	-7770
gan	-7771
ince	-7772
▁816	-7773
▁1008	-7774
▁1121	-7775
▁5717	-7776
▁odore	-7777
ufficio	-7778
▁inizia	-7779
▁coinvol	-7780
▁maggiore	-7781
▁arrivando	-7782
▁exhausted	-7783
▁newspaper	-7784
lies	-7785
▁Nel	-7786
▁Sol	-7787
▁neg	-7788
inate	-7789
▁1153	-7790
▁2575	-7791
▁3353	-7792
▁bott	-7793
▁hero	-7794
▁22452	-7795
▁calda	-7796
▁promo	-7797
▁provò	-7798
intment	-7799
▁quanti	-7800
▁riesci	-7801
▁capital	-7802
▁investi	-7803
▁uccelli	-7804
▁mountain	-7805
▁solitamente	-7806
tem	-7807
▁Sì	-7808
▁Wi	-7809
▁nos	-7810
▁1095	-7811
▁2574	-7812
▁3134	-7813
▁3737	-7814
▁fear	-7815
▁39051	-7816
▁Dimmi	-7817
▁solle	-7818
▁songs	-7819
▁destra	-7820
▁idiota	-7821
▁libertà	-7822
▁pesante	-7823
▁Vorreste	-7824
▁desperate	-7825
▁difficoltà	-7826
▁facilmente	-7827
imi	-7828
▁159	-7829
▁208	-7830
▁1019	-7831
▁1140	-7832
▁3825	-7833
▁4500	-7834
▁With	-7835
attere	-7836
▁ciocc	-7837
▁pausa	-7838
▁press	-7839
▁sharp	-7840
▁dovuta	-7841
▁locked	-7842
▁aiuterò	-7843
▁canzoni	-7844
▁certainly	-7845
▁arrabbiare	-7846
inta	-7847
▁665	-7848
▁997	-7849
▁Tur	-7850
ician	-7851
istra	-7852
▁2215	-7853
▁3378	-7854
▁7031	-7855
▁7474	-7856
▁grave	-7857
idabile	-7858
▁fronte	-7859
▁insult	-7860
▁metter	-7861
▁origin	-7862
▁sapore	-7863
▁details	-7864
▁pleased	-7865
▁seguire	-7866
▁mostrato	-7867
▁neighbors	-7868
▁recognized	-7869
ula	-7870
cket	-7871
orre	-7872
board	-7873
cceed	-7874
raged	-7875
▁1101	-7876
▁2622	-7877
▁4497	-7878
▁fred	-7879
▁requ	-7880
bility	-7881
▁guada	-7882
▁distra	-7883
▁moroso	-7884
▁polite	-7885
▁pulito	-7886
▁adopted	-7887
▁braccio	-7888
▁contare	-7889
▁esempio	-7890
▁ottobre	-7891
▁succeed	-7892
▁aiutarvi	-7893
▁risposte	-7894
▁traduzione	-7895
▁underestim	-7896
▁né	-7897
9998	-7898
rono	-7899
▁907	-7900
▁1074	-7901
▁6697	-7902
▁circ	-7903
▁rude	-7904
ellent	-7905
▁39063	-7906
▁Quell	-7907
▁worst	-7908
▁sisters	-7909
▁subject	-7910
▁arrivati	-7911
▁biglietti	-7912
bra	-7913
gale	-7914
▁2972	-7915
▁club	-7916
▁cond	-7917
▁lago	-7918
▁39206	-7919
▁Brazi	-7920
▁Satur	-7921
▁record	-7922
▁scegli	-7923
▁covered	-7924
▁purpose	-7925
▁following	-7926
▁giocatore	-7927
rew	-7928
utt	-7929
ense	-7930
▁3509	-7931
▁3862	-7932
▁6303	-7933
▁8858	-7934
▁Good	-7935
▁boat	-7936
▁rimp	-7937
▁naked	-7938
▁schia	-7939
▁chiamò	-7940
▁scrive	-7941
▁cleaned	-7942
▁diversa	-7943
▁intorno	-7944
▁sbaglia	-7945
▁suggest	-7946
▁excellent	-7947
▁dovrebbero	-7948
tai	-7949
▁spo	-7950
amion	-7951
irono	-7952
▁5710	-7953
▁5722	-7954
▁Scus	-7955
▁auth	-7956
▁fran	-7957
▁ghia	-7958
▁liar	-7959
▁avvic	-7960
▁certo	-7961
▁esame	-7962
▁grate	-7963
▁vento	-7964
▁buying	-7965
▁camion	-7966
▁commun	-7967
▁dicono	-7968
▁colpito	-7969
▁curioso	-7970
▁believes	-7971
▁commesso	-7972
▁divertito	-7973
▁soddisfatto	-7974
gui	-7975
ner	-7976
ruc	-7977
▁fif	-7978
▁1004	-7979
▁1046	-7980
▁2252	-7981
▁2486	-7982
▁3820	-7983
▁8514	-7984
▁Tony	-7985
▁anti	-7986
▁giud	-7987
▁Benven	-7988
▁cousin	-7989
▁eccell	-7990
▁guardi	-7991
▁potere	-7992
▁diritto	-7993
▁mentire	-7994
▁stanche	-7995
▁pranzato	-7996
▁solution	-7997
▁cellulare	-7998
▁invitation	-7999
ics	-8000
enze	-8001
▁742	-8002
▁ros	-8003
oured	-8004
ziato	-8005
▁1152	-8006
▁3132	-8007
▁8884	-8008
etchup	-8009
▁25483	-8010
▁trans	-8011
tazione	-8012
▁Marika	-8013
▁entire	-8014
erazione	-8015
▁aiutate	-8016
▁ketchup	-8017
▁scompar	-8018
▁borrowed	-8019
▁tranquill	-8020
▁dispiaciuto	-8021
dle	-8022
ked	-8023
▁Gre	-8024
▁dad	-8025
▁jud	-8026
▁top	-8027
▁2463	-8028
▁2715	-8029
▁2721	-8030
▁ospi	-8031
▁22026	-8032
▁39176	-8033
▁Abita	-8034
▁Inizi	-8035
▁cheap	-8036
▁sensi	-8037
▁handed	-8038
▁lonely	-8039
▁rispar	-8040
▁answers	-8041
▁courage	-8042
▁occupate	-8043
▁delicious	-8044
▁impegnate	-8045
▁grandfather	-8046
9796	-8047
ffer	-8048
▁437	-8049
ativa	-8050
▁1076	-8051
▁2421	-8052
▁2714	-8053
▁2722	-8054
▁4394	-8055
▁6094	-8056
▁lock	-8057
▁wise	-8058
ologia	-8059
▁28211	-8060
▁altra	-8061
▁gradu	-8062
▁sarai	-8063
▁Riesco	-8064
▁engine	-8065
▁toward	-8066
▁urlare	-8067
inazione	-8068
▁costume	-8069
▁sveglio	-8070
▁Yesterday	-8071
▁chiamarmi	-8072
▁diventando	-8073
usc	-8074
chia	-8075
▁2248	-8076
▁3721	-8077
▁6451	-8078
▁uovo	-8079
▁36364	-8080
▁birds	-8081
▁honey	-8082
▁ingen	-8083
▁sonno	-8084
vimento	-8085
▁Sembrano	-8086
▁conosceva	-8087
asp	-8088
iao	-8089
aido	-8090
ased	-8091
ervi	-8092
mine	-8093
▁207	-8094
▁Rob	-8095
▁sos	-8096
aereo	-8097
tious	-8098
▁1045	-8099
▁3874	-8100
▁fuck	-8101
▁lake	-8102
fortun	-8103
▁39061	-8104
▁39203	-8105
▁feels	-8106
▁laure	-8107
▁magni	-8108
▁106961	-8109
▁determ	-8110
▁gelato	-8111
▁pronun	-8112
▁example	-8113
▁perdita	-8114
▁retired	-8115
▁selfish	-8116
▁trusted	-8117
▁expected	-8118
▁politica	-8119
▁proposta	-8120
▁incontrare	-8121
▁preparando	-8122
▁appuntamento	-8123
lim	-8124
▁zu	-8125
ango	-8126
▁715	-8127
▁fed	-8128
terra	-8129
▁1761	-8130
▁2020	-8131
▁2733	-8132
▁2882	-8133
▁3113	-8134
▁3201	-8135
▁4664	-8136
▁stat	-8137
▁verd	-8138
▁64392	-8139
▁Lavor	-8140
▁aware	-8141
▁lacri	-8142
▁pezzo	-8143
▁Lavora	-8144
▁almeno	-8145
▁except	-8146
▁suicid	-8147
▁twenty	-8148
▁diventò	-8149
▁piacque	-8150
▁chocolate	-8151
▁passaporto	-8152
okk	-8153
▁Des	-8154
▁Sii	-8155
▁gem	-8156
▁2281	-8157
▁2978	-8158
▁3482	-8159
▁8520	-8160
▁Hokk	-8161
▁feci	-8162
▁smar	-8163
atever	-8164
▁11442	-8165
▁22032	-8166
▁Sorry	-8167
▁climb	-8168
▁crime	-8169
▁sweet	-8170
▁odiava	-8171
▁sicuri	-8172
▁entrato	-8173
▁studies	-8174
▁Hokkaido	-8175
▁betrayed	-8176
▁sottoval	-8177
▁piangendo	-8178
ots	-8179
▁229	-8180
▁976	-8181
▁2436	-8182
▁2484	-8183
▁3734	-8184
▁5282	-8185
▁mira	-8186
▁tort	-8187
▁tour	-8188
▁39042	-8189
▁39123	-8190
▁39174	-8191
▁64393	-8192
▁stone	-8193
▁taste	-8194
▁chiamo	-8195
▁seeing	-8196
▁contatt	-8197
▁nervosa	-8198
▁Saturday	-8199
▁continued	-8200
▁profession	-8201
▁studentessa	-8202
fico	-8203
▁146	-8204
▁esp	-8205
▁nor	-8206
cious	-8207
ziale	-8208
▁2853	-8209
▁5351	-8210
▁7748	-8211
▁crow	-8212
▁rose	-8213
▁39126	-8214
▁enemy	-8215
▁maled	-8216
▁mostr	-8217
▁preno	-8218
▁design	-8219
▁explan	-8220
▁remained	-8221
▁accettato	-8222
▁avrebbero	-8223
▁scrivendo	-8224
▁sn	-8225
▁209	-8226
▁566	-8227
▁786	-8228
▁Say	-8229
▁Yes	-8230
chino	-8231
▁3342	-8232
▁5293	-8233
▁6356	-8234
▁bare	-8235
▁capi	-8236
arlier	-8237
▁22453	-8238
▁39054	-8239
▁keeps	-8240
▁saper	-8241
▁invent	-8242
▁lotter	-8243
▁rabbia	-8244
▁suffer	-8245
▁parlano	-8246
▁macchine	-8247
▁accettare	-8248
▁expecting	-8249
ye	-8250
oph	-8251
▁Ba	-8252
tics	-8253
▁559	-8254
▁yes	-8255
occhi	-8256
▁1084	-8257
▁2496	-8258
▁2555	-8259
▁6263	-8260
▁6272	-8261
▁bear	-8262
▁jump	-8263
▁pena	-8264
▁vege	-8265
▁22553	-8266
▁Venga	-8267
▁utile	-8268
Algeria	-8269
▁abitare	-8270
▁disappe	-8271
▁ricordi	-8272
▁aiutando	-8273
▁assomiglia	-8274
▁translation	-8275
geri	-8276
ilar	-8277
▁vas	-8278
▁1065	-8279
▁7163	-8280
▁Open	-8281
▁gold	-8282
▁istr	-8283
▁pitt	-8284
▁pray	-8285
iamoci	-8286
inizio	-8287
▁11261	-8288
▁22456	-8289
▁adott	-8290
▁curry	-8291
▁festi	-8292
▁peace	-8293
▁lavori	-8294
▁nostal	-8295
▁onesta	-8296
▁belongs	-8297
▁seguito	-8298
▁sentite	-8299
ef	-8300
cou	-8301
9996	-8302
gion	-8303
pper	-8304
▁145	-8305
▁840	-8306
▁957	-8307
▁1816	-8308
▁1860	-8309
▁8700	-8310
▁piet	-8311
foglio	-8312
▁21112	-8313
▁Prima	-8314
▁compl	-8315
▁gramm	-8316
▁Because	-8317
▁assente	-8318
▁attorno	-8319
▁cercare	-8320
▁compagn	-8321
▁lacrime	-8322
▁lascerò	-8323
▁tickets	-8324
▁Sappiamo	-8325
▁abituata	-8326
▁prenderò	-8327
tt	-8328
allo	-8329
▁487	-8330
▁945	-8331
▁2686	-8332
▁3823	-8333
▁3902	-8334
▁7912	-8335
▁dico	-8336
▁feed	-8337
▁mezz	-8338
▁pair	-8339
▁vari	-8340
▁11873	-8341
▁39103	-8342
▁dolce	-8343
▁rooms	-8344
▁enorme	-8345
▁raccol	-8346
▁ruined	-8347
▁stessi	-8348
inocchio	-8349
▁disponi	-8350
▁lontana	-8351
▁chiudere	-8352
▁assonnato	-8353
▁Preferirei	-8354
▁eccellente	-8355
erti	-8356
pond	-8357
ters	-8358
▁916	-8359
▁943	-8360
▁Ann	-8361
arent	-8362
xious	-8363
▁2218	-8364
▁2763	-8365
▁3512	-8366
▁3756	-8367
▁8516	-8368
▁dele	-8369
▁math	-8370
▁papà	-8371
▁prec	-8372
▁25484	-8373
▁28214	-8374
▁39191	-8375
▁adora	-8376
▁brill	-8377
▁sbara	-8378
▁useful	-8379
▁chiamerò	-8380
▁practice	-8381
▁realized	-8382
▁riescono	-8383
▁contrario	-8384
▁poliziotto	-8385
amm	-8386
dici	-8387
enco	-8388
plom	-8389
▁557	-8390
▁731	-8391
▁spi	-8392
▁1192	-8393
▁4001	-8394
▁4014	-8395
▁bian	-8396
▁mass	-8397
▁21076	-8398
▁Emily	-8399
▁Quest	-8400
▁cards	-8401
▁dichi	-8402
▁sbrig	-8403
▁Ammise	-8404
▁accett	-8405
▁caduto	-8406
▁diplom	-8407
▁consape	-8408
▁Prendete	-8409
▁vegetari	-8410
▁accompagn	-8411
▁traveling	-8412
una	-8413
zzò	-8414
▁419	-8415
▁485	-8416
▁550	-8417
▁Nag	-8418
▁Pol	-8419
▁hug	-8420
▁wit	-8421
▁1495	-8422
▁3001	-8423
▁5742	-8424
▁naso	-8425
▁39074	-8426
▁65323	-8427
▁Smith	-8428
▁homes	-8429
▁intim	-8430
▁russo	-8431
▁wears	-8432
▁energy	-8433
▁sudden	-8434
▁piovere	-8435
▁vederti	-8436
▁ammalato	-8437
▁grateful	-8438
▁upstairs	-8439
▁esperienza	-8440
▁preoccupare	-8441
▁comportamento	-8442
hol	-8443
▁Du	-8444
alla	-8445
sivo	-8446
▁764	-8447
▁831	-8448
ciuti	-8449
▁2283	-8450
▁2359	-8451
▁2961	-8452
▁4665	-8453
▁5073	-8454
▁7952	-8455
▁8501	-8456
▁lava	-8457
▁nipo	-8458
▁39196	-8459
▁57582	-8460
▁Perse	-8461
▁Their	-8462
▁asset	-8463
▁darmi	-8464
▁arrend	-8465
▁avessi	-8466
▁filled	-8467
▁taglia	-8468
▁challen	-8469
▁faranno	-8470
▁normale	-8471
▁painted	-8472
▁prendendo	-8473
ggiù	-8474
▁981	-8475
▁984	-8476
▁Fri	-8477
▁esi	-8478
▁sla	-8479
apena	-8480
estre	-8481
▁2014	-8482
▁5486	-8483
▁6663	-8484
▁Alla	-8485
▁area	-8486
▁earn	-8487
▁pisc	-8488
▁plac	-8489
▁ulti	-8490
ggiorn	-8491
▁Tutte	-8492
▁carro	-8493
▁horri	-8494
▁sogni	-8495
▁bigger	-8496
▁glielo	-8497
▁teoria	-8498
▁theory	-8499
▁Avrebbe	-8500
▁braccia	-8501
▁rifiutò	-8502
▁malapena	-8503
eld	-8504
tre	-8505
uts	-8506
▁Ob	-8507
8391	-8508
aded	-8509
ests	-8510
gali	-8511
olar	-8512
▁equ	-8513
▁tow	-8514
lable	-8515
ldren	-8516
▁2253	-8517
▁2291	-8518
▁2523	-8519
▁Mand	-8520
▁bevo	-8521
▁luck	-8522
▁barca	-8523
▁faith	-8524
▁milli	-8525
▁prova	-8526
▁dreams	-8527
▁ferita	-8528
▁resign	-8529
▁wallet	-8530
▁assunto	-8531
▁machine	-8532
▁offerta	-8533
▁vedermi	-8534
▁attacked	-8535
▁proteggere	-8536
edia	-8537
ices	-8538
osta	-8539
▁407	-8540
▁537	-8541
▁587	-8542
▁804	-8543
▁nev	-8544
graph	-8545
ordin	-8546
▁2858	-8547
▁2863	-8548
▁2876	-8549
▁6301	-8550
▁muro	-8551
astico	-8552
zienda	-8553
▁11776	-8554
▁18871	-8555
▁India	-8556
▁names	-8557
▁pigro	-8558
▁suono	-8559
▁asciug	-8560
▁attacc	-8561
▁demand	-8562
▁cavalli	-8563
▁insegna	-8564
▁suonato	-8565
▁personal	-8566
In	-8567
ums	-8568
▁140	-8569
▁Abb	-8570
▁5154	-8571
▁8102	-8572
▁arms	-8573
▁pale	-8574
▁step	-8575
redici	-8576
▁39102	-8577
▁Secon	-8578
▁abito	-8579
▁sight	-8580
▁carino	-8581
▁discus	-8582
▁fridge	-8583
▁notice	-8584
▁warned	-8585
▁pubblic	-8586
▁introduc	-8587
▁divertita	-8588
▁permettere	-8589
▁presidente	-8590
gal	-8591
mies	-8592
▁sys	-8593
alata	-8594
atten	-8595
rezzo	-8596
▁3547	-8597
▁5356	-8598
▁6274	-8599
▁9723	-8600
▁corn	-8601
▁pool	-8602
▁till	-8603
▁inten	-8604
▁ripet	-8605
▁space	-8606
▁Algeri	-8607
▁Ditemi	-8608
▁sabato	-8609
▁Perhaps	-8610
▁cantato	-8611
▁earlier	-8612
▁infasti	-8613
▁chiamate	-8614
▁paranoid	-8615
▁ascoltato	-8616
▁sorridere	-8617
▁aggressive	-8618
▁seriamente	-8619
▁explanation	-8620
Do	-8621
oys	-8622
9852	-8623
▁Mad	-8624
▁bow	-8625
icate	-8626
▁1082	-8627
▁2275	-8628
▁2586	-8629
▁3417	-8630
▁6440	-8631
▁6532	-8632
▁Cons	-8633
▁pack	-8634
eresti	-8635
▁39171	-8636
▁84756	-8637
▁Quand	-8638
▁amate	-8639
▁elett	-8640
▁resto	-8641
oraggio	-8642
▁commer	-8643
▁povero	-8644
▁silent	-8645
▁venuti	-8646
▁vicini	-8647
▁visita	-8648
▁England	-8649
▁animale	-8650
▁pretend	-8651
▁convince	-8652
▁involved	-8653
▁intelligent	-8654
▁portafoglio	-8655
fy	-8656
▁Pl	-8657
ghil	-8658
avolo	-8659
orses	-8660
▁1194	-8661
▁2571	-8662
▁2612	-8663
▁2790	-8664
▁2861	-8665
▁4473	-8666
▁6358	-8667
▁7395	-8668
usione	-8669
▁event	-8670
▁Alcune	-8671
vailable	-8672
▁cancell	-8673
ghilterra	-8674
▁mangiano	-8675
▁ottimista	-8676
▁relations	-8677
▁significa	-8678
▁complaining	-8679
ks	-8680
gge	-8681
rire	-8682
▁958	-8683
▁Bet	-8684
▁Tim	-8685
▁mel	-8686
▁spl	-8687
ising	-8688
ution	-8689
ziosa	-8690
▁2239	-8691
▁3106	-8692
▁5751	-8693
▁5757	-8694
▁6666	-8695
▁7122	-8696
▁7750	-8697
▁draw	-8698
▁harm	-8699
▁legs	-8700
▁tast	-8701
▁viva	-8702
omeday	-8703
▁22483	-8704
▁claim	-8705
▁colla	-8706
▁Nessun	-8707
▁agreed	-8708
▁losing	-8709
▁prende	-8710
▁wealth	-8711
occhiata	-8712
▁injured	-8713
▁porterò	-8714
▁permetter	-8715
▁suspicious	-8716
7552	-8717
▁638	-8718
▁cru	-8719
▁2240	-8720
▁2481	-8721
▁3123	-8722
▁7768	-8723
▁argu	-8724
▁hire	-8725
▁trem	-8726
assion	-8727
issimo	-8728
ousand	-8729
▁22035	-8730
▁64404	-8731
▁74103	-8732
▁magaz	-8733
▁torna	-8734
▁abbass	-8735
▁depend	-8736
▁garage	-8737
▁raccon	-8738
▁sarete	-8739
▁chicken	-8740
▁fermata	-8741
▁natural	-8742
▁talento	-8743
▁sicurezza	-8744
▁Preferisco	-8745
Non	-8746
asci	-8747
▁Nap	-8748
▁log	-8749
astic	-8750
▁2682	-8751
▁2834	-8752
▁3152	-8753
▁3330	-8754
▁5991	-8755
▁6637	-8756
▁7795	-8757
▁8014	-8758
▁boll	-8759
▁crav	-8760
▁feet	-8761
▁loud	-8762
▁Dille	-8763
▁burro	-8764
▁pochi	-8765
▁salad	-8766
▁spina	-8767
▁Africa	-8768
▁Alcuni	-8769
▁Ditele	-8770
▁effort	-8771
▁flight	-8772
▁picked	-8773
▁ragazz	-8774
▁seconda	-8775
▁segreti	-8776
▁vincerà	-8777
▁annoiato	-8778
▁coraggio	-8779
▁aggiungere	-8780
ffi	-8781
▁Ju	-8782
▁Ok	-8783
▁Ve	-8784
enso	-8785
▁588	-8786
▁641	-8787
▁763	-8788
▁930	-8789
▁Dis	-8790
▁pet	-8791
▁1723	-8792
▁2237	-8793
▁2255	-8794
▁2510	-8795
▁2982	-8796
▁Hung	-8797
▁Vidi	-8798
▁nine	-8799
▁20444	-8800
▁25474	-8801
▁26472	-8802
▁cento	-8803
▁miele	-8804
▁rossa	-8805
▁seldom	-8806
▁furious	-8807
▁washing	-8808
▁recommend	-8809
▁ov	-8810
tead	-8811
▁730	-8812
▁936	-8813
▁fla	-8814
endio	-8815
pagne	-8816
volta	-8817
▁1146	-8818
▁2064	-8819
▁2262	-8820
▁2792	-8821
▁3003	-8822
▁5403	-8823
▁6204	-8824
▁8992	-8825
▁ebbe	-8826
▁whis	-8827
▁46671	-8828
▁Compr	-8829
▁Siate	-8830
▁copia	-8831
▁storm	-8832
▁accons	-8833
▁merita	-8834
▁enemies	-8835
▁forever	-8836
▁missing	-8837
▁chiunque	-8838
▁chiedendo	-8839
▁obviously	-8840
▁525	-8841
▁924	-8842
▁War	-8843
▁usa	-8844
▁2477	-8845
▁2835	-8846
▁2996	-8847
▁4013	-8848
▁4564	-8849
▁5693	-8850
▁5743	-8851
▁8492	-8852
▁Ciao	-8853
▁scal	-8854
▁type	-8855
▁uses	-8856
▁volo	-8857
▁22476	-8858
▁26481	-8859
▁39133	-8860
▁Crede	-8861
▁calls	-8862
▁pesci	-8863
▁portò	-8864
▁sentì	-8865
▁chiaro	-8866
▁faremo	-8867
▁nobody	-8868
▁remain	-8869
▁system	-8870
▁accused	-8871
▁consegn	-8872
▁diretto	-8873
▁instead	-8874
▁secrets	-8875
▁capitale	-8876
▁contento	-8877
▁apologized	-8878
▁responsible	-8879
9993	-8880
arne	-8881
▁934	-8882
▁Dec	-8883
▁Two	-8884
▁obb	-8885
▁svi	-8886
▁1016	-8887
▁2123	-8888
▁2485	-8889
▁3563	-8890
▁3573	-8891
▁3733	-8892
▁orri	-8893
chiamo	-8894
▁10286	-8895
▁Venne	-8896
▁jokes	-8897
▁reply	-8898
▁Contro	-8899
▁Quelle	-8900
▁giving	-8901
▁ricche	-8902
▁curiosa	-8903
▁improve	-8904
▁license	-8905
▁società	-8906
▁ubriaca	-8907
▁Tomorrow	-8908
▁available	-8909
▁incolpare	-8910
▁nostalgia	-8911
▁perfectly	-8912
▁risultato	-8913
▁government	-8914
9592	-8915
ancy	-8916
cita	-8917
▁212	-8918
▁555	-8919
▁856	-8920
▁Wow	-8921
enced	-8922
itate	-8923
▁1135	-8924
▁2566	-8925
▁5703	-8926
▁sconf	-8927
▁suitc	-8928
▁tears	-8929
▁tolse	-8930
▁cooper	-8931
▁disegn	-8932
▁island	-8933
▁baciare	-8934
▁fiducia	-8935
▁memoria	-8936
▁schiena	-8937
▁scrisse	-8938
▁similar	-8939
▁tredici	-8940
▁cravatta	-8941
▁proposal	-8942
▁riuscire	-8943
▁abandoned	-8944
▁coraggioso	-8945
▁permission	-8946
▁dimenticare	-8947
▁898	-8948
▁963	-8949
▁991	-8950
▁gal	-8951
verse	-8952
zzati	-8953
▁2172	-8954
▁3883	-8955
▁incl	-8956
▁jack	-8957
▁sarc	-8958
▁decei	-8959
▁vorrà	-8960
▁lavare	-8961
▁maiale	-8962
▁remind	-8963
▁talent	-8964
▁volare	-8965
▁ricerca	-8966
occasione	-8967
▁lasciate	-8968
▁sinistra	-8969
mate	-8970
rati	-8971
▁549	-8972
▁Mor	-8973
▁ang	-8974
▁wis	-8975
▁1029	-8976
▁2261	-8977
▁2870	-8978
▁3161	-8979
▁3164	-8980
▁3393	-8981
▁3416	-8982
▁4406	-8983
▁5796	-8984
▁6211	-8985
▁loca	-8986
▁sfor	-8987
▁22551	-8988
▁73854	-8989
▁album	-8990
▁comun	-8991
▁furono	-8992
▁nemico	-8993
▁someday	-8994
▁staring	-8995
▁stronger	-8996
▁mezzogiorno	-8997
gio	-8998
tol	-8999
ront	-9000
vera	-9001
▁445	-9002
▁809	-9003
▁rob	-9004
▁sli	-9005
▁sov	-9006
ratul	-9007
ulous	-9008
▁1102	-9009
▁2016	-9010
▁2752	-9011
▁5086	-9012
▁5633	-9013
▁6521	-9014
▁chef	-9015
▁conn	-9016
onable	-9017
▁11116	-9018
▁21116	-9019
▁39161	-9020
▁39173	-9021
▁43976	-9022
▁allen	-9023
▁cotta	-9024
▁ended	-9025
▁gambe	-9026
▁gesti	-9027
▁zuppa	-9028
issioni	-9029
▁behavi	-9030
▁poured	-9031
▁repair	-9032
▁sciare	-9033
▁intende	-9034
▁piscina	-9035
▁starting	-9036
▁catturato	-9037
▁controllo	-9038
▁barzelletta	-9039
▁spiegazione	-9040
▁addormentato	-9041
▁relationship	-9042
jo	-9043
via	-9044
▁Sb	-9045
cano	-9046
ckey	-9047
dino	-9048
▁444	-9049
ciare	-9050
cohol	-9051
dovin	-9052
pagna	-9053
▁1813	-9054
▁1867	-9055
▁2576	-9056
▁4356	-9057
▁5556	-9058
▁5983	-9059
▁6530	-9060
▁Bush	-9061
▁aprì	-9062
▁cong	-9063
▁emer	-9064
▁febb	-9065
▁39092	-9066
▁84806	-9067
▁canta	-9068
▁citta	-9069
▁motel	-9070
▁raise	-9071
▁arrivò	-9072
▁artist	-9073
▁automo	-9074
▁laggiù	-9075
▁moving	-9076
▁picnic	-9077
▁ricchi	-9078
▁salary	-9079
▁bedroom	-9080
▁convers	-9081
▁holiday	-9082
▁survive	-9083
▁vicenda	-9084
▁conoscenza	-9085
▁recentemente	-9086
arg	-9087
ury	-9088
▁iP	-9089
9994	-9090
anas	-9091
cher	-9092
rapp	-9093
▁579	-9094
▁1062	-9095
▁2587	-9096
▁3022	-9097
▁6013	-9098
▁6066	-9099
▁9010	-9100
▁jour	-9101
▁prot	-9102
▁vale	-9103
▁10148	-9104
▁25493	-9105
▁Watch	-9106
▁campo	-9107
▁fresh	-9108
▁nuovi	-9109
▁treat	-9110
inverno	-9111
▁guardò	-9112
▁horses	-9113
▁negato	-9114
▁progra	-9115
▁uccisi	-9116
▁anziana	-9117
▁Vogliono	-9118
▁attended	-9119
▁disposta	-9120
▁messaggi	-9121
▁sopravvi	-9122
▁sorprese	-9123
▁relazione	-9124
▁ovviamente	-9125
bè	-9126
rovv	-9127
site	-9128
▁408	-9129
▁475	-9130
▁888	-9131
▁2842	-9132
▁6206	-9133
▁6585	-9134
▁atti	-9135
▁bebè	-9136
▁dish	-9137
▁poet	-9138
▁prev	-9139
▁serp	-9140
tables	-9141
▁Sarei	-9142
▁seria	-9143
▁stuck	-9144
▁Europa	-9145
▁charac	-9146
▁excuse	-9147
▁famosa	-9148
▁Christi	-9149
▁article	-9150
▁cattiva	-9151
▁checked	-9152
▁governo	-9153
▁lascerà	-9154
▁suggeri	-9155
▁Sometimes	-9156
▁chiamando	-9157
▁president	-9158
▁everywhere	-9159
rof	-9160
uce	-9161
7085	-9162
9166	-9163
fero	-9164
irsi	-9165
lity	-9166
▁tat	-9167
▁1169	-9168
▁2414	-9169
▁2564	-9170
▁8382	-9171
▁grid	-9172
▁moon	-9173
▁10264	-9174
▁22376	-9175
▁25491	-9176
▁39080	-9177
▁85371	-9178
▁crowd	-9179
▁encou	-9180
▁togli	-9181
▁Friday	-9182
▁George	-9183
▁animal	-9184
▁button	-9185
▁lately	-9186
▁prenda	-9187
▁tristi	-9188
▁within	-9189
▁sistema	-9190
▁website	-9191
▁homesick	-9192
▁champagne	-9193
▁translated	-9194
▁utilizzato	-9195
ucc	-9196
5503	-9197
erdì	-9198
attia	-9199
▁2033	-9200
▁2855	-9201
▁3024	-9202
▁4915	-9203
▁5712	-9204
▁6273	-9205
▁6701	-9206
▁luna	-9207
▁quad	-9208
▁28213	-9209
▁39193	-9210
▁39202	-9211
▁39204	-9212
▁diedi	-9213
▁intra	-9214
▁inuti	-9215
▁magli	-9216
▁passò	-9217
▁infran	-9218
▁myster	-9219
▁Avresti	-9220
▁million	-9221
▁sposare	-9222
▁teaches	-9223
▁affamati	-9224
▁invitata	-9225
▁malattia	-9226
▁primavera	-9227
▁richiesta	-9228
▁spazzatura	-9229
▁consigliato	-9230
▁preoccuparti	-9231
hem	-9232
lop	-9233
7796	-9234
anzi	-9235
aped	-9236
▁986	-9237
aiuto	-9238
riter	-9239
udine	-9240
▁1882	-9241
▁1891	-9242
▁2018	-9243
▁2249	-9244
▁2712	-9245
▁3111	-9246
▁3221	-9247
▁assa	-9248
▁22373	-9249
▁Digli	-9250
▁Spain	-9251
▁Studi	-9252
▁Vengo	-9253
▁folle	-9254
▁sacri	-9255
▁whose	-9256
▁Spagna	-9257
▁assass	-9258
▁escape	-9259
▁joking	-9260
▁ordine	-9261
▁rarely	-9262
▁regali	-9263
▁ashamed	-9264
▁carcere	-9265
▁impress	-9266
▁campagna	-9267
▁condivid	-9268
▁italiano	-9269
▁fortunate	-9270
▁ricordare	-9271
▁complicated	-9272
lam	-9273
▁Mo	-9274
5498	-9275
8123	-9276
8344	-9277
▁469	-9278
▁Ste	-9279
▁nur	-9280
antly	-9281
icità	-9282
▁1740	-9283
▁2601	-9284
▁3863	-9285
▁4366	-9286
▁5990	-9287
▁6601	-9288
▁7113	-9289
▁tong	-9290
attuto	-9291
omento	-9292
▁11795	-9293
▁64390	-9294
▁among	-9295
▁elect	-9296
▁gives	-9297
▁bright	-9298
▁cooked	-9299
▁nation	-9300
▁Entramb	-9301
▁romanzi	-9302
▁vedervi	-9303
▁festival	-9304
▁generous	-9305
▁ghiaccio	-9306
▁thousand	-9307
rid	-9308
ensi	-9309
▁149	-9310
▁480	-9311
▁Bud	-9312
▁1113	-9313
▁2696	-9314
▁2771	-9315
▁3532	-9316
▁5251	-9317
▁5347	-9318
▁6104	-9319
▁9076	-9320
▁Farò	-9321
▁gira	-9322
▁pure	-9323
▁simp	-9324
uzione	-9325
▁11226	-9326
▁11546	-9327
▁22703	-9328
▁51893	-9329
▁corsa	-9330
▁farai	-9331
▁gonna	-9332
▁Prepar	-9333
▁acceso	-9334
▁cancer	-9335
▁divano	-9336
▁nemici	-9337
▁noioso	-9338
▁rimane	-9339
▁saggio	-9340
orologio	-9341
▁aiutati	-9342
▁touched	-9343
▁Facciamo	-9344
▁bellezza	-9345
▁fighting	-9346
▁horrible	-9347
▁conoscevo	-9348
▁dimissioni	-9349
▁sopportare	-9350
▁vegetables	-9351
▁responsabile	-9352
sc	-9353
ym	-9354
wai	-9355
▁Ra	-9356
5614	-9357
9031	-9358
9229	-9359
aren	-9360
pria	-9361
▁See	-9362
▁ble	-9363
▁ped	-9364
night	-9365
▁1126	-9366
▁2452	-9367
▁2596	-9368
▁2602	-9369
▁2862	-9370
▁2920	-9371
▁7151	-9372
▁Hello	-9373
▁Molte	-9374
▁anger	-9375
▁becom	-9376
▁legno	-9377
▁perio	-9378
▁vieni	-9379
▁confer	-9380
▁guanti	-9381
▁lights	-9382
▁stanze	-9383
▁intimid	-9384
▁patente	-9385
▁stupide	-9386
▁suicide	-9387
▁comincia	-9388
▁headache	-9389
▁contratto	-9390
9433	-9391
eral	-9392
iano	-9393
▁369	-9394
▁627	-9395
▁gay	-9396
▁ost	-9397
gging	-9398
llato	-9399
ption	-9400
▁2194	-9401
▁2458	-9402
▁2833	-9403
▁6472	-9404
▁luci	-9405
▁11043	-9406
▁Whose	-9407
▁board	-9408
▁carry	-9409
▁forza	-9410
▁musul	-9411
▁riemp	-9412
▁Muslim	-9413
▁yellow	-9414
▁pazienza	-9415
▁tempesta	-9416
▁preoccuparsi	-9417
▁riconosciuto	-9418
uy	-9419
7806	-9420
8124	-9421
8659	-9422
9236	-9423
▁895	-9424
▁cab	-9425
▁2022	-9426
▁2432	-9427
▁2524	-9428
▁2793	-9429
▁3114	-9430
▁anal	-9431
▁lett	-9432
▁21114	-9433
▁39142	-9434
▁39164	-9435
▁Alice	-9436
▁Andrà	-9437
▁cieco	-9438
▁frigo	-9439
▁accomp	-9440
▁tongue	-9441
▁propria	-9442
▁spiegato	-9443
▁realizzato	-9444
7509	-9445
8671	-9446
9798	-9447
aive	-9448
gano	-9449
itti	-9450
▁705	-9451
▁758	-9452
▁860	-9453
▁Pia	-9454
▁Wor	-9455
appar	-9456
gherò	-9457
▁1052	-9458
▁1100	-9459
▁2238	-9460
▁2784	-9461
▁3471	-9462
▁4493	-9463
▁5754	-9464
▁5758	-9465
▁5852	-9466
▁Feci	-9467
▁drug	-9468
▁goal	-9469
▁noon	-9470
endere	-9471
▁11222	-9472
▁22482	-9473
▁56791	-9474
▁64394	-9475
▁85211	-9476
▁Since	-9477
▁barba	-9478
▁cloud	-9479
▁dirti	-9480
▁naive	-9481
▁admire	-9482
▁breath	-9483
▁burned	-9484
▁gloves	-9485
▁tenuto	-9486
▁Conosci	-9487
▁Ditegli	-9488
▁crossed	-9489
▁fermato	-9490
▁sentivo	-9491
▁vederle	-9492
▁depresso	-9493
▁desiderio	-9494
▁sottovalut	-9495
▁consapevole	-9496
▁raggiungere	-9497
NA	-9498
9668	-9499
erle	-9500
▁718	-9501
▁821	-9502
▁Lin	-9503
▁Tak	-9504
▁fig	-9505
arabo	-9506
▁2375	-9507
▁2973	-9508
▁3594	-9509
▁6208	-9510
▁asse	-9511
▁demo	-9512
▁mail	-9513
▁18873	-9514
▁22084	-9515
▁74051	-9516
▁aiutò	-9517
▁arabo	-9518
▁Prenda	-9519
▁predic	-9520
▁resist	-9521
▁social	-9522
▁unable	-9523
▁divorced	-9524
▁edificio	-9525
▁minestra	-9526
▁spavento	-9527
▁vorresti	-9528
▁appassion	-9529
▁compagnia	-9530
▁attentamente	-9531
▁attraversare	-9532
ja	-9533
ban	-9534
zer	-9535
▁CD	-9536
▁hy	-9537
5801	-9538
9702	-9539
▁735	-9540
▁974	-9541
▁fle	-9542
▁1000	-9543
▁1131	-9544
▁2007	-9545
▁2471	-9546
▁5090	-9547
▁5723	-9548
▁Swed	-9549
▁dise	-9550
▁euro	-9551
▁lamp	-9552
attolo	-9553
▁18874	-9554
▁31723	-9555
▁74406	-9556
▁Abito	-9557
▁Senti	-9558
▁beard	-9559
▁paesi	-9560
▁produ	-9561
▁direct	-9562
▁enjoys	-9563
▁expert	-9564
▁mister	-9565
▁pulita	-9566
▁quarti	-9567
▁spento	-9568
▁Cominci	-9569
▁Faresti	-9570
▁costosa	-9571
▁private	-9572
▁venerdì	-9573
▁ottenere	-9574
▁principi	-9575
▁countries	-9576
▁preparare	-9577
▁automobili	-9578
▁introduced	-9579
▁appointment	-9580
met	-9581
7210	-9582
8374	-9583
jong	-9584
osto	-9585
ppia	-9586
▁477	-9587
▁mes	-9588
forta	-9589
▁1116	-9590
▁2391	-9591
▁2407	-9592
▁3142	-9593
▁3548	-9594
▁4506	-9595
▁4985	-9596
▁5134	-9597
▁5766	-9598
▁5828	-9599
▁6568	-9600
▁8767	-9601
▁cash	-9602
▁cogn	-9603
▁deaf	-9604
▁surf	-9605
chetta	-9606
icidio	-9607
▁11781	-9608
▁Marie	-9609
▁overw	-9610
▁pollo	-9611
▁scopo	-9612
▁Allora	-9613
▁Sapeva	-9614
▁delusa	-9615
▁fredda	-9616
▁invito	-9617
▁piatto	-9618
▁Dimenti	-9619
▁results	-9620
▁convinta	-9621
▁corretta	-9622
▁musician	-9623
▁prigioni	-9624
▁Canadians	-9625
▁economico	-9626
▁preoccupi	-9627
▁giapponesi	-9628
▁imbarazzato	-9629
▁interessati	-9630
Isl	-9631
bys	-9632
7504	-9633
8163	-9634
gher	-9635
▁sud	-9636
hjong	-9637
▁2412	-9638
▁2702	-9639
▁2798	-9640
▁4499	-9641
▁4973	-9642
▁5980	-9643
▁7373	-9644
▁8952	-9645
▁Thom	-9646
▁diam	-9647
▁rosa	-9648
▁view	-9649
▁wore	-9650
▁17394	-9651
▁26451	-9652
▁39084	-9653
▁accad	-9654
▁babys	-9655
▁match	-9656
▁metro	-9657
▁passo	-9658
▁Chiedi	-9659
▁motore	-9660
▁odiano	-9661
▁sigare	-9662
▁offerto	-9663
▁uscendo	-9664
▁vederli	-9665
▁wasting	-9666
▁continua	-9667
▁friendly	-9668
▁interrom	-9669
▁offended	-9670
▁perdendo	-9671
▁allergico	-9672
▁americano	-9673
▁risultati	-9674
appartamento	-9675
0610	-9676
0654	-9677
7003	-9678
7080	-9679
7245	-9680
7777	-9681
8243	-9682
9976	-9683
vare	-9684
▁398	-9685
▁Alm	-9686
▁hes	-9687
▁viv	-9688
ining	-9689
▁2692	-9690
▁2791	-9691
▁2890	-9692
▁3374	-9693
▁3396	-9694
▁4201	-9695
▁4463	-9696
▁Stia	-9697
▁fork	-9698
▁lent	-9699
▁nomi	-9700
▁thie	-9701
anotte	-9702
umenti	-9703
▁18876	-9704
▁39136	-9705
▁judge	-9706
▁passi	-9707
▁stavi	-9708
essione	-9709
▁Bibbia	-9710
▁crimin	-9711
▁galera	-9712
▁giacca	-9713
▁produc	-9714
▁spetta	-9715
▁comment	-9716
▁domesti	-9717
▁mantenere	-9718
▁obiettivo	-9719
▁pavimento	-9720
▁pretended	-9721
▁incredibile	-9722
▁perfettamente	-9723
gre	-9724
itò	-9725
.000	-9726
5389	-9727
7797	-9728
9582	-9729
9701	-9730
9992	-9731
aste	-9732
inti	-9733
▁oil	-9734
▁zia	-9735
eight	-9736
gnere	-9737
orità	-9738
▁1083	-9739
▁2483	-9740
▁2520	-9741
▁4980	-9742
▁6672	-9743
▁6851	-9744
▁aunt	-9745
▁drow	-9746
▁nole	-9747
▁punt	-9748
▁seas	-9749
▁20124	-9750
▁24516	-9751
▁Bible	-9752
▁avvel	-9753
▁bandi	-9754
▁costs	-9755
▁meant	-9756
▁tratt	-9757
▁Glielo	-9758
▁Niente	-9759
▁grassa	-9760
▁humili	-9761
▁ospiti	-9762
▁plenty	-9763
▁parties	-9764
▁rimasta	-9765
▁science	-9766
▁thanked	-9767
▁comprend	-9768
▁brillante	-9769
▁dirglielo	-9770
▁musicista	-9771
▁programma	-9772
aut	-9773
kip	-9774
ler	-9775
oya	-9776
ulo	-9777
6775	-9778
7591	-9779
9111	-9780
9423	-9781
9673	-9782
9674	-9783
ever	-9784
ormi	-9785
▁925	-9786
▁Sco	-9787
▁boi	-9788
▁tec	-9789
mates	-9790
riage	-9791
usias	-9792
▁1067	-9793
▁1112	-9794
▁1125	-9795
▁2159	-9796
▁2559	-9797
▁2590	-9798
▁2806	-9799
▁3860	-9800
▁5362	-9801
▁6442	-9802
▁6533	-9803
▁Sing	-9804
▁citi	-9805
▁race	-9806
▁roof	-9807
▁sost	-9808
istica	-9809
▁22403	-9810
▁39131	-9811
▁Brown	-9812
▁Gioca	-9813
▁Metti	-9814
▁Wikip	-9815
▁biste	-9816
▁const	-9817
▁forti	-9818
▁happi	-9819
▁hopes	-9820
▁panda	-9821
▁rimpi	-9822
▁scomm	-9823
▁Aspett	-9824
▁Nagoya	-9825
▁active	-9826
▁forced	-9827
▁giochi	-9828
▁harder	-9829
fortable	-9830
▁battuta	-9831
▁investig	-9832
▁romantic	-9833
▁Wikipedia	-9834
▁iniziando	-9835
▁threatened	-9836
▁Bl	-9837
7002	-9838
8153	-9839
8277	-9840
8335	-9841
9790	-9842
9983	-9843
waii	-9844
▁Dai	-9845
ashed	-9846
ciute	-9847
usion	-9848
▁1009	-9849
▁1664	-9850
▁2534	-9851
▁2934	-9852
▁3564	-9853
▁4511	-9854
▁5096	-9855
▁5989	-9856
▁7441	-9857
▁7496	-9858
▁8882	-9859
▁8926	-9860
▁coma	-9861
▁lies	-9862
▁mood	-9863
▁sinc	-9864
▁tipi	-9865
▁11032	-9866
▁18604	-9867
▁22028	-9868
▁46672	-9869
▁added	-9870
▁scary	-9871
▁steak	-9872
▁Hawaii	-9873
▁Thomas	-9874
▁Transl	-9875
▁author	-9876
▁uccisa	-9877
▁Portate	-9878
▁aspetti	-9879
▁avvelen	-9880
▁cultura	-9881
▁dipinto	-9882
▁egoista	-9883
▁mahjong	-9884
▁sposate	-9885
▁contract	-9886
▁felicità	-9887
▁riuscita	-9888
▁straight	-9889
▁divertiti	-9890
▁affidabile	-9891
▁preferisco	-9892
▁Ta	-9893
0625	-9894
5497	-9895
7283	-9896
7588	-9897
8165	-9898
8260	-9899
Amer	-9900
rori	-9901
utti	-9902
▁457	-9903
▁951	-9904
▁Due	-9905
▁amb	-9906
▁1051	-9907
▁1739	-9908
▁2743	-9909
▁3129	-9910
▁3251	-9911
▁3891	-9912
▁6073	-9913
▁6300	-9914
▁8362	-9915
▁cere	-9916
▁held	-9917
▁74412	-9918
▁above	-9919
▁sugli	-9920
▁Comprò	-9921
▁invece	-9922
▁venite	-9923
▁	-9924
e	-9925
o	-9926
a	-9927
i	-9928
t	-9929
n	-9930
r	-9931
s	-9932
l	-9933
.	-9934
h	-9935
1	-9936
2	-9937
d	-9938
m	-9939
3	-9940
u	-9941
5	-9942
c	-9943
4	-9944
7	-9945
6	-9946
8	-9947
9	-9948
0	-9949
p	-9950
g	-9951
v	-9952
y	-9953
b	-9954
f	-9955
w	-9956
T	-9957
'	-9958
I	-9959
?	-9960
k	-9961
S	-9962
H	-9963
z	-9964
è	-9965
,	-9966
L	-9967
M	-9968
q	-9969
N	-9970
W	-9971
D	-9972
A	-9973
P	-9974
C	-9975
Y	-9976
ò	-9977
à	-9978
V	-9979
È	-9980
Q	-9981
B	-9982
!	-9983
E	-9984
x	-9985
F	-9986
j	-9987
é	-9988
G	-9989
ì	-9990
"	-9991
ù	-9992
R	-9993
O	-9994
J	-9995
